/**
  ******************************************************************************
  * @file    network_data_params.c
  * @author  AST Embedded Analytics Research Platform
  * @date    2025-02-14T15:33:36-0300
  * @brief   AI Tool Automatic Code Generator for Embedded NN computing
  ******************************************************************************
  * Copyright (c) 2025 STMicroelectronics.
  * All rights reserved.
  *
  * This software is licensed under terms that can be found in the LICENSE file
  * in the root directory of this software component.
  * If no LICENSE file comes with this software, it is provided AS-IS.
  ******************************************************************************
  */

#include "network_data_params.h"


/**  Activations Section  ****************************************************/
ai_handle g_network_activations_table[1 + 2] = {
  AI_HANDLE_PTR(AI_MAGIC_MARKER),
  AI_HANDLE_PTR(NULL),
  AI_HANDLE_PTR(AI_MAGIC_MARKER),
};




/**  Weights Section  ********************************************************/
AI_ALIGNED(32)
const ai_u64 s_network_weights_array_u64[25153] = {
  0xbe396bf5bcee5b64U, 0xbdb720713d740e89U, 0x3df345743db1af78U, 0x3e234b2f3df267c5U,
  0xbd0600ff3dc58c2fU, 0xbd9571993d92e86bU, 0x3d8604db3d9757b6U, 0xbd7ba5123df8ac17U,
  0x3e8e36853e4e8370U, 0xbda3edfc3c8c9ad1U, 0xbd9df10a3dac8e58U, 0xbd6c6d14bce23280U,
  0x3e21f4983df5210cU, 0x3e111ed6be101becU, 0xbb350d003e1df48aU, 0xbe2f7292be15620aU,
  0x3e1cf8dfbcccab11U, 0x3d70f4f23e040969U, 0x3e4003883e0f045cU, 0xbd065044bdd585f2U,
  0x3db91417be4e966aU, 0x3e2eea303dd917ebU, 0xbe29ce443b9f5900U, 0xbe3c417a3ca7d7d8U,
  0xbe4aa8693e3eed32U, 0x3e0da5d8bdc4fbfeU, 0x3e1480eabe83bf2cU, 0x3e62d49d3df97243U,
  0x3d9b7a0e3dba1ed7U, 0xbdd86ba93e45be7fU, 0xbf465ac03eed3ceaU, 0xbd35b2193b3ee6b4U,
  0xbc747ba0be2b0e48U, 0x3dfb2418bdb60b1eU, 0x3e344b40bd4ea7d8U, 0x3e329da53d429cdfU,
  0xbe3f86e7bd8b86a2U, 0x3dd84dc0bd2ce050U, 0xbd5a92ccbe14db82U, 0xbc884b40be0af57cU,
  0xbea3ea27be8be053U, 0x3ddc04b53cec2720U, 0x3e014e3c3df108ccU, 0x3d16a3a4bdd01374U,
  0x3e2a4bee3ca10165U, 0xbcbee2a23da135f3U, 0xbd3ea620bd9fa990U, 0x3db13828be004342U,
  0xbe22ead8be4db2edU, 0xbe19a626bcb32908U, 0xbc149ec03d90b028U, 0xbd84eab4be04b7a7U,
  0xbceffd003e03938aU, 0x3e427750bdf1270aU, 0x3d1e592fbe092d65U, 0x3c35d4e93dc691d6U,
  0x3cf9cab0be393345U, 0xbc8840e8be43e942U, 0x3da35c4f3d191820U, 0xbba0df0c3e10c055U,
  0xbe04ad68be58ff8dU, 0x3e058f10bdf9d9a1U, 0xbe0429783e01f8acU, 0x3e750ba4bd5d03afU,
  0x3e2c70b03e32969eU, 0xbc9766a0bcc4c298U, 0xbe408ac53e86cc38U, 0xbdceddaf3dfd8abdU,
  0xbd8cf636be55fd93U, 0x3e718a513e0d2bcdU, 0xbd96a5f63e568626U, 0xbdf58bc8baac9e80U,
  0x3e61a2f0bd8f3d11U, 0x3df4fc303d7e7d53U, 0x3e213ab9bd4c841dU, 0x3e8ad6b6bd7c8bbaU,
  0xbe36325d3e964e8dU, 0x3dda948d3cf4971dU, 0xbc9a36e83e0f5ca6U, 0xbd9e266a3b975880U,
  0xbe58a98a3d88cdd2U, 0x3da7dea23dcdb53fU, 0x3e45cfeebe533857U, 0xbe57ae7fbcb1fbf8U,
  0x3c776a22bd082180U, 0x3e21c6dd3d437520U, 0x3d8a29283e616adcU, 0x3e6524f83de66c79U,
  0x3e17b30b3d717cf2U, 0x3dd9815a3df4e828U, 0x3dc6afcc3e32cafcU, 0x3e24b288be12673cU,
  0xbe1fd8853d54aaa8U, 0x3e482624be591ac3U, 0x3e35be08bcf99567U, 0x3ddd6e693dcb0aedU,
  0x3aba5fccbd448deaU, 0x3de603ea3d06ead7U, 0x3e59c7ce3bde3940U, 0xbdf4d585be3d83adU,
  0x3c8a9650bbd1b540U, 0xbe4eafcbbe3b080bU, 0x3e5287cc3d837778U, 0x3e40ef30be1820acU,
  0x3d33c7983e547ceaU, 0x3c7b0a90be211d9cU, 0x3e2088f2be128c81U, 0x3e3b66d6bdb42fa8U,
  0xbda785dc3dc7c044U, 0x3d25fdb0bdeb6b3cU, 0xbe3cd89c3c5cf8c0U, 0xbe22690cbd2dcf18U,
  0xbdd026713ddfe81cU, 0xbe58e3183dd79d34U, 0xbd89cadabe61b9b0U, 0x3e4e07e43dff7ce5U,
  0xbc55ad50bd1d3f10U, 0xbda233963b7b8dc0U, 0xbeaf1a3d3e068838U, 0x3dfed7923dcdf0bdU,
  0x3d5d671c3c9b0d59U, 0xbe09e5723e044e58U, 0x3e38b760bdfed73cU, 0xbd37fad0bd65316cU,
  0xbdd4020a3e799ef0U, 0xbe1ebc7b3df83b43U, 0xbdfe8e84bd9b1067U, 0x3d43c0e43d411b79U,
  0xbdc82229bdb79c82U, 0x3c43d7713db0dce1U, 0x3df13f943d327ea0U, 0xbdc05a4ebe3e5566U,
  0xbda65d88bd378fd8U, 0x3de60110bd32d8f4U, 0xbd8548dc3e30640cU, 0x3e219208be248d66U,
  0x3ea68ddd3e4fecdaU, 0x3c5111583e077359U, 0x3e50d5c43dfe201cU, 0xbdae93a63dfc7f44U,
  0xbd23f0a93e36310aU, 0x3e6c24b53d5120a9U, 0x3e30e5723dbb982cU, 0x3dc478dabca953b9U,
  0x3e47fd8abc883158U, 0xbe17bfaa3c66a960U, 0xbcc3d2b13dc43a1fU, 0xbdf587b53e337dc7U,
  0xbd70deb83e1698f0U, 0xbe0299afbd7ff5f8U, 0x3e0407c63e2ac3daU, 0x3e1cca0cbdbbb8a4U,
  0x3e3405f23deba7acU, 0x3e2ceb74be514ddfU, 0xbd1471cbbd6b447eU, 0x3e1b0d9d3ddfa16aU,
  0x3e37acaa3e1f54e9U, 0xbd4a4ef63e3708e7U, 0xbdb77bee3e230d32U, 0x3e556cc6be529404U,
  0x3ea2eca73e7b8bbeU, 0xbdea6a123cd855f0U, 0xbe02b218be6ada8eU, 0x3e59083a3c20ae94U,
  0x3da783cfbe0dad85U, 0x3e2728dd3d4b755bU, 0xbdcf1c4d3cf35df0U, 0xbd9269babe2fafd6U,
  0xbd79bf93bdf1bcdcU, 0x3e50e4423e4182eeU, 0xbd8da2eabddd7996U, 0x3e4e0c0ebe546975U,
  0x3e49a79cbddb1a34U, 0xbde47dd4be0eb0daU, 0xbe081576bd0d1a20U, 0xbe31d408bd200054U,
  0xbe0f3b16be2cd563U, 0xbe3d69db3e01032eU, 0xbdc1f25f3db797a0U, 0xbe55e31dbd8b16a0U,
  0x3d77f5c8be46f326U, 0x3ca53638be402baeU, 0xb971dfb8be20f431U, 0x3d35e94f3dff065aU,
  0xbd90582a3e4f9f1cU, 0x3d3eb348be3fc244U, 0x3debd0fabe21087fU, 0x3dfe907d3cf9ef52U,
  0x3bb2b5c0bdc3f44fU, 0x3e2c1f9f3e3a8360U, 0xbe1117a8bc91bf50U, 0xbd1a0054bcd8ec10U,
  0x3cef5ca7be07fef3U, 0x3dfaeb1f3cd4d6cbU, 0xbdf5ddf03e156a22U, 0x3e4e0f263e34bbf8U,
  0x3e3c61043e1ecbe0U, 0x3e36311fbdb0b191U, 0xbe0bd696bccb295aU, 0x3e6401233def0648U,
  0x3d0ef44a3c852f3eU, 0x3dfb8c343e500d0cU, 0xbcfee7113e318a6dU, 0x3c10b52d3e222849U,
  0x3e53e29bbd508fddU, 0x3e61a8dfbd0a562fU, 0xbe50c0113d11a1a8U, 0xbd6c2f68be511ad9U,
  0xbe0949c8be3adcc0U, 0x3d092140bca8eb80U, 0x3c8ab3773e9e11dcU, 0x3de013a03df931a8U,
  0x3dfe09b0be35886dU, 0x3e2c7bfcbe11f2d4U, 0xbdab444fbe78447dU, 0x3a4f88263e371b3aU,
  0xbe3e83a3bd235d58U, 0xbe387364be4724bbU, 0x3ded6224bc87ae70U, 0xbe34857bbe274f84U,
  0xbe53c39dbe14e980U, 0xbe38dd64bd2345d8U, 0x3e1935e23e264322U, 0x3e2dc4113d43d844U,
  0xbe2a5f75bdb3273cU, 0xbe66a7dc3ddcd98aU, 0xbdb36db2be2aa47bU, 0x3db05e58bde3cd53U,
  0xbcfa1da0bba5ef60U, 0x3c2ee460bde8baeaU, 0x3e0d59a43cc25d88U, 0xbb803a80be1e95bcU,
  0x3e655e133de90d68U, 0x3e4ededb3e302e14U, 0xbde23eb2bd8b6d28U, 0x3c5e81b0bd142becU,
  0x3c41dd323d0d1df8U, 0x3e2832dc3d92a7b4U, 0x3c6bbcd0be0273f2U, 0xbd981e563beaa320U,
  0xbdc20b6ebc4c4201U, 0xbe1376653dfa4db9U, 0xbea28d1b3e551415U, 0xbdc789393d244ba2U,
  0x3def801cbe045938U, 0xbdca036fbe02bd3cU, 0x3e135203be30f2d7U, 0xbe3143463de69a76U,
  0xbecf880ebdab5513U, 0x3c86ba4d3d465642U, 0x3d8be9a63dd86143U, 0x3d9936553df87893U,
  0x3e12eaa6bda51faeU, 0x3da801b4be4b6ebdU, 0xbc2c8af33e14d394U, 0xbe5cdc243df67fcbU,
  0x3b350d6cbc405cffU, 0x3be02b60bcb66062U, 0xbd0541bbU, 0x0U,
  0xbc7d530cU, 0x3a77221bU, 0x3ba130b800000000U, 0x3d3d1be9bcd48701U,
  0x3cc5f10400000000U, 0x0U, 0xbca01931U, 0xbc77412eU,
  0x0U, 0x3c1e9e8200000000U, 0xbcb7ef9300000000U, 0x3c82f17500000000U,
  0xbd11d4c400000000U, 0x3ca6802cU, 0x3d1e0f7a3a165bbdU, 0xbca94577U,
  0xbcc65fe2U, 0x3c046a9c3c74c074U, 0x3a4a34e4U, 0xbd1fbf6f00000000U,
  0xbcacff4dU, 0x0U, 0x0U, 0x0U,
  0x3c45d91dbc8a5740U, 0xbd0e448700000000U, 0x3c204a01U, 0xbcbd8d5fbd0bbcbbU,
  0x3bfb1dddU, 0x0U, 0xbc6f0752bc7514ceU, 0xbb9e42a93c96d4d9U,
  0xbc9b7c7b00000000U, 0x0U, 0x3c37db8e00000000U, 0x3aa3cb2fU,
  0x3c5fc908bd24e711U, 0x3b9f7284U, 0x3c3335f4U, 0x0U,
  0xbb9f8979U, 0x3c93bfdc00000000U, 0x3cb62a2900000000U, 0xbc08dbe6U,
  0x3b50178a3bc6e7d5U, 0x3c859b3fbbcee992U, 0xbc2668e23c0ff42cU, 0x3c96f1a2U,
  0xbc07d65500000000U, 0xbc8c02ee00000000U, 0x0U, 0xbce317a700000000U,
  0xbc8e48f5U, 0x0U, 0x3b905047U, 0x3c3fc374U,
  0xbca2c98cbcbdb2ceU, 0xbc6bc18500000000U, 0xbc37f872bbf09927U, 0xbc31077200000000U,
  0xbe11b0733c0f8040U, 0x3dc10aa6bd59e2caU, 0x3da25d823cb9d478U, 0xbd238ce63e121eafU,
  0xbe07f2f7be1a90beU, 0xbe1208c43d1867bcU, 0x3dcd82be3d6e7f88U, 0xbe05528a3cec6de8U,
  0x3d102e243e136f9bU, 0xbda2e2b3be058ebcU, 0x3e0305b73dfefc12U, 0x3de13696bc911318U,
  0xbcc1be58bdfc8f65U, 0xbe1abc4c3dd79032U, 0x3dd05c263d00d97cU, 0x3d2a74703d83c566U,
  0xbd8a4b743d6afc40U, 0x3d78d7f4bba5fb40U, 0xbe0901423d6431d0U, 0x3ddfda1ebd1bea52U,
  0xbe19bf1fbe0a6f33U, 0xbcbccf403dc74252U, 0xbd13ad0cbdbeee8aU, 0xbdd644e23d994558U,
  0xbdcdc312ba658100U, 0x3df2675abd06d636U, 0x3d93e0d43dc9b046U, 0xbdcdda5d3cd351f8U,
  0x3cd609f0bc18abf0U, 0x3c3d8b50bdcaf138U, 0xbd22fb943d9c808cU, 0x3db32c663c636380U,
  0xbd9d2a133dcfe30aU, 0x3da4608ebd22b64eU, 0x3c097080bd781fa2U, 0xbd2102b6bd7c6262U,
  0x3da8a0603b38fa40U, 0xbdfa54e0bdb70b55U, 0xbe1094e9bc470bd0U, 0x3d1740783dbbb046U,
  0x3d99f500bdb79791U, 0xbdaa6a383e17f98bU, 0x3d37457cbdf2bc36U, 0x3caa96483db8dee2U,
  0xbdd1fad7bc8a99c8U, 0xbe035df23d7ac328U, 0x3d006100bd4e68b4U, 0x3d1300943d1d6708U,
  0x3d1bff9c3d806152U, 0x3dd3fb223db1bcacU, 0x3d79726cbde9044aU, 0xbe0361d93d28b4c0U,
  0x3d693964bdf19555U, 0xbe08ff12bda3812bU, 0xbe05a61cbdaf7f91U, 0xbdf3461c3db73ecaU,
  0x3cd0b3a83b33bdc0U, 0x3d839ee03d892836U, 0x3d0c11c8bdfbaae7U, 0xbd2b913a3da0b170U,
  0xbda2470f3d911644U, 0x3da1222cbdb6358fU, 0x3dfa216abd3cb134U, 0xbe164ff93e1a16edU,
  0xbd303ff23d48c72cU, 0x3cf856103e1a71b9U, 0xbd590b8a3d826900U, 0x3da281b63dc0eceeU,
  0x3d9c6dc0bde72508U, 0x3d80b426bd42dec4U, 0x3deb3cca3cc79770U, 0x3d864f643cf82de0U,
  0x3dde4c7a3d9fb9d4U, 0x3e048d453dc05f42U, 0x3d81fc343df066f6U, 0x3dd94f023bb54320U,
  0xbdf3b81a3c53f230U, 0x3e0cb6a3bda00391U, 0xbde2e320bdb14740U, 0xbcb192a03e0fe615U,
  0x3d53227c3def1ebaU, 0xbe13d4833dadfaf6U, 0xbd74df88bd8b554cU, 0x3c112ce0bd9cabbcU,
  0xbdebc5753e0ddde5U, 0x3e000c5f3dc266d8U, 0x3df42d8abde11bd8U, 0xb8a790003c37c950U,
  0xbe07fad23dcb127eU, 0xbda62ee43deaa00eU, 0x3df8b6f63d71c3c0U, 0xba297e00bd67f7a2U,
  0xbd36a088bcc7cb08U, 0x3dca44febdd97708U, 0xbc943a903c7482c0U, 0x3d2073443e068e71U,
  0xbc1172603d287a58U, 0x3daa2e6abd08ad02U, 0x3df75b4e3e1391cfU, 0xbd9fdc38bdff1784U,
  0x3d981a20bdb304caU, 0xbe17107dbe1c5a9eU, 0xbda432783c7f10b0U, 0x3c8f7f783d521630U,
  0x3b6eae003d59a09cU, 0xbde55fcebd60e806U, 0xbd85928dbe0c70f4U, 0xbe179c8a3d84b6faU,
  0x3dac6ae8bda95667U, 0xbe196493bd45ceeaU, 0x3c0ebb603d286624U, 0xbe067d4d392adc00U,
  0xbb0a8980be0294bcU, 0xbe16790abdfda156U, 0x3d0a101cbde7019cU, 0xbdd06d6ebd1d6400U,
  0xbd5299ec3e11b719U, 0x3d14b0443e16ebd9U, 0x3db340d6bda2409dU, 0xbd1d24f83d9169e0U,
  0x3deb3e5a3d98938cU, 0x3dfebe263b97fc40U, 0xbdadccdcbd7c5ba6U, 0x3dd1273ebd6acde8U,
  0xbd4ef1d6bdc2ebbeU, 0x3d51ee943d9840feU, 0xbc2969c0be036854U, 0xbd88505fbbfa0dc0U,
  0xbd8d7aac3e114651U, 0xbd827992bd8197c7U, 0xbdd2e04a3d36591cU, 0xbd8c96d53bc05620U,
  0xbe000f9cbd35c4d8U, 0x3da85be2bba6c880U, 0xbd34f4debd4595bcU, 0x3da080d03dc61996U,
  0xbe018e46bd9dc4c2U, 0xbda1a7cebdc16e02U, 0x3b8ff520be0d71a6U, 0xbdf45d863d55dd48U,
  0xbc804df8be0c0340U, 0xbe03e83fbd83a23aU, 0x3d997560bdbc4752U, 0x3dd8a10ebdf872ceU,
  0x3dbb38b63c991500U, 0xbdccb639bdd6b89eU, 0x3d9403e83d8a862aU, 0xbd3e25243e0ae263U,
  0xbd4bec72bdd7957aU, 0xbe0704b23d49a3e4U, 0x3db9b8e83db9a8c6U, 0xbd8f424cbe1baeafU,
  0x3de1da86bcbebab0U, 0xbe0517d2bd63465aU, 0x3d699ec0bd8d202dU, 0xbe0eb415be0df46cU,
  0x3ce907683cffaa20U, 0x3ca9d9a8bdabbe81U, 0xbdbf8addbde1f766U, 0x3dfdb7e6bd1ce62aU,
  0x3cbf09e8bddf8316U, 0xbd91371f3d366f8cU, 0x3e17867fbcc39b60U, 0xbdbecda4bde6d63aU,
  0x3c2be0503d9dd050U, 0x3cc6b5a0bbcff140U, 0xbdfb59f0bc75f8c0U, 0xbd561b78be1151a5U,
  0x3e0ebe3dbcf4f4dcU, 0x3d6fecd8bdcb907eU, 0x3dd33852bcb688e8U, 0xbd5f68debe1c069eU,
  0xbc938e083ddc0d2aU, 0xbddb71843d4043f8U, 0x3d50b92c3e0db8efU, 0x3de91b12bcb870e8U,
  0xbd4daebc3e02982bU, 0xbdebac42bd9b9565U, 0x3d81cfe23d878e2cU, 0xbdc54c14bdb5a39aU,
  0xbe097c743cbd7858U, 0xbce36a683da1d0a0U, 0x3d485680bdb063c5U, 0x3d2c0c5c3d9c8d8aU,
  0xbd5fd6a4bdf824f9U, 0x3d5bd88cbe132ac3U, 0xbd09f830be0c9b72U, 0x3cb592c03c6de6e0U,
  0xbdbd91f23dc6cf02U, 0x3dc2515abd5c71eaU, 0xbdc343da3dbf20deU, 0xbd67bc00bcf7d068U,
  0x3d61c470bd9ea1b6U, 0xbdd7650abdad5d68U, 0x3d9a1b503b951fa0U, 0x3db180c0bdf2084eU,
  0xbe0b77b23dcc20deU, 0x3ac0fa80be16db03U, 0xbd6d86e63d96e238U, 0xbdce0527be1abe2cU,
  0xbde9ffc93de3ad1aU, 0x3d6af8ecbdcecf5eU, 0x3e0f1e53be10b765U, 0x3db7b2bebdacbf57U,
  0xbd74be783de73bbaU, 0xbdf15f0abdc425f8U, 0x3d85ccd83de5f612U, 0xbe18b245bd184698U,
  0xbcd564f8bde3afdeU, 0xbd913d84be1415a2U, 0xbc8e8340be0c9431U, 0xbce9d7b0bd20b454U,
  0xbe0af74abdf698f1U, 0xbd79fdf03dadfc4cU, 0x3db5a4803df81aaaU, 0xbd8c7b5fbca96a20U,
  0xbd460a6ebe065e7eU, 0x3d301564bdd425d7U, 0xbe0f9fcd3b76b340U, 0xbe0a0f4e3e051af3U,
  0xbc65bff03dbdd7daU, 0xbd7570c83e0d513fU, 0x3d4769203dbb04caU, 0x3e17fbb3bc33ff30U,
  0xbcbbd5403d98a9f4U, 0x3d9363103d13d170U, 0xbd4c478a3c51fcf0U, 0xbd175b5ebd92faacU,
  0xba193a003e06da1fU, 0xbcf39a903df4512aU, 0x3dd6eb123c70f440U, 0xbe0c8d153d4e7da4U,
  0xbc4558203d4e8f48U, 0x3dfedfcabc8f6088U, 0x3cd3b0603e04c2c1U, 0xbded7a14bd86b7d2U,
  0xbded64f4bde59072U, 0x3da904263e0f9bafU, 0x3ce584f83db8442eU, 0x3d0e66fc3db7b204U,
  0xbc723e10bd166afaU, 0x3e0b14c33e130003U, 0xbdbdd234bd444ca0U, 0xbd8156d8bd75cc72U,
  0x3cbdc520bd5f5bbeU, 0x3de8dbe6be061f30U, 0x3e0df661bd0cd5f6U, 0x3dca7a9ebdb5d785U,
  0xbd3f77ac3de3280aU, 0xbdf0ab543d3f7ec8U, 0x3dcbb6cabe0f8a2aU, 0xbd2801e8bd000864U,
  0x3d0a47383d9f0f0eU, 0xbe00e12f3d223e94U, 0xbd4f27b0be0d4aaeU, 0x3db4271c3dd911beU,
  0x3dad91fabd845747U, 0x3bdc0e403de1493aU, 0xbe0f2f183d9ac0b6U, 0xbd7c9ff83e195859U,
  0x3dcaa8e6bcb315b8U, 0x3e00bb033dbecd60U, 0x3db26ac6bcfb8fecU, 0x3d73da983e165fc7U,
  0xbd6c61583dbadf12U, 0x3d97d9063d8bce56U, 0x3d001d54bdcba920U, 0x3cba52b03e036631U,
  0xbd7f08ee3d86327aU, 0xbd2701c83d64fc34U, 0xbdde81873de3c206U, 0xbdcf97ecbdbdd0ceU,
  0xbdcf43483d345608U, 0x3db6fc5a3cc16108U, 0xbd8674003d8d3728U, 0xbdf60a16bdbdad45U,
  0xbda549b1bdf527b8U, 0xbe02ffe83d290d34U, 0xbc787ef03c5b4f40U, 0xbcb0e5e0bcf0323cU,
  0xbd8350aabdb7e247U, 0x3d60b84cbd6f0e2cU, 0xbe07f4cd3da55fbeU, 0xbd4e896cbc985dc0U,
  0xbd9ed3b7bd016dd4U, 0xbe103f72bd419efeU, 0x3c880dd8bc8c0a20U, 0xbdea9bb1bce18700U,
  0xbd2a39623df02a82U, 0x3d895d16be0a4282U, 0x3e0f9a253d90097eU, 0x3c034c303dd363aaU,
  0xbde7c7023dc90a1aU, 0x3cfa8e203de16bc2U, 0xbce052d83e1b7af3U, 0xbca49ba8bd524adaU,
  0xbd6a20fc3ded3a5eU, 0x3e1134e9be0bd7b2U, 0xbd5f066ebdcfaee2U, 0xbd89dfdebbc851a0U,
  0x3cca0d403dddea9eU, 0xbe196d573de80ff6U, 0xbde694a1bd80c33aU, 0x3d3047603e0c3885U,
  0xbddcab12bd2c7a28U, 0xbe18c842bd8e1722U, 0xbdce49a03e004cf1U, 0xbe0f3eeebd8fadddU,
  0x3df8f9c63daa19ceU, 0x3d68627c3d878bccU, 0xbdc7e4023d8dc03cU, 0x3daf6cb83dcdde52U,
  0xbd91bd59be0b33afU, 0xbdce4f0abd002604U, 0x3c350720bdb4ccaeU, 0xbce33d683d6e83a8U,
  0x3e1815c5bd8069afU, 0x3debfafa3de0f95eU, 0x3e1741753b0de680U, 0x3d6ed524bbc511c0U,
  0xbceb36343c2caac0U, 0xbddb7c063d9cd3ceU, 0xbc08aa80bcae8528U, 0xbd8c9d483e03f089U,
  0x3adcc9003db8f150U, 0x3d2208a0bb6f7580U, 0xbe09cee2bc9903f0U, 0xbd90e9b73dfbe1e2U,
  0xbc576960bcb5b708U, 0x3d933b643cad7038U, 0xbdacf1d23c44fd00U, 0x3da68e983ce374f8U,
  0xbd63183a3dfc5946U, 0x3cd6b590bce289f8U, 0xbd96a028bd7986e8U, 0xbda2aa973d01e730U,
  0xbe0bc10fbce2fc58U, 0x3db14cd2bdd501b4U, 0x3d9580b03e04ae03U, 0xbd6690bebc3954f0U,
  0xbdcccd923dff5e26U, 0xbd84d0cb3dadb584U, 0x3e1affbd3ba953c0U, 0x3c9711283de7618aU,
  0x3dcc5aa6bda91c09U, 0xbd62b572bdc9db9bU, 0xbdbb1b78bd073c2cU, 0x3d515a14bdd364f6U,
  0xbccd9e28bc5cb640U, 0xbdbc24f83e14d6b7U, 0xbd5c3f823e024cf1U, 0x3def687e3dd96b42U,
  0x3e131e93baf81900U, 0xbd06b05cbb5d07c0U, 0xbd0c085cbd8311eaU, 0xbde3ff6c3da086c0U,
  0x3da882cebe1987a5U, 0x3d82d600bd2ebf1cU, 0x3bc53b603dff48a2U, 0xbd59ccb43cbdcb18U,
  0xbcdcd018bd29f034U, 0xbd5f00cebdfae17dU, 0xbcd901e8bddd6b4cU, 0x3ddd9c823e033bdfU,
  0xbe137c90be053d52U, 0xbd3e09c63d659d48U, 0xbe17e6cf3d59b83cU, 0x3b3427803d3aacd0U,
  0x3d288128bd931976U, 0x3cdb93a83d795430U, 0x3c7d4ce0bd2c9b00U, 0xbdba624d3c825cb0U,
  0x3dc83522bd07d378U, 0xbc8443c0bc82a6f0U, 0xbd6d92d8bddf37c4U, 0xbe0968efbdc947c2U,
  0xbca3f528bcd9faa8U, 0x3bb689e03df1b1f2U, 0xbb04da803e1b4b31U, 0x3d346a3cbe166a8eU,
  0xbe02f78e3d90f352U, 0x3e0b360d3d4bd518U, 0xbe1324553dcd8c9eU, 0xbcec40a8be0bb8b7U,
  0xbdd78c943d947356U, 0x3e1037c33dab6f5cU, 0xbd965e0a3dcbdaa6U, 0x3dac8cb43d4f8068U,
  0xbd9850213deff5f2U, 0x3e081d17bc4cb990U, 0x3ca982f03d8b82e2U, 0xbd0774b4bc6678e0U,
  0xbd617f203d5d50dcU, 0x3e0aaf91bd9c0063U, 0xbe1bd9233e1650dbU, 0xbe0db2be3d569784U,
  0xbd98a50e3e0b8ac9U, 0x3d479d54bdb183e4U, 0x3df39f323d6649f0U, 0x3dd1c5be3d9aa8c4U,
  0xbd5a0d6c3da14a1cU, 0xbdabf1fcbd9aa9ebU, 0xbdab5bf4bdb2db87U, 0xbe083eb53d3ee58cU,
  0xbd569312bcd9cf80U, 0xbdcb8f6c3c95a5c8U, 0xbe00911ebe0447e6U, 0xbd7de5363ded7b8eU,
  0x3cf885a8bbf72ea0U, 0x3e15a1a33da4aefeU, 0xbd5f8072bdbb337cU, 0x3dcfb13e3c483be0U,
  0xbe08f649bdf8798eU, 0x3c7c45e0bda6c209U, 0x3d9163cabdd4360cU, 0xbd937e1f3e03d24bU,
  0xbd5d5c423cbccc30U, 0x3e1a3e953d832c5cU, 0x3b8e0fe03e0b7e71U, 0x3c7232603dd36c86U,
  0x3d52708cbe186e2eU, 0xbde2decdbc45bdf0U, 0x3de3e42a3dbe4344U, 0x3d763954bd7044b8U,
  0xbde5c6913c6438a0U, 0x3cccf6f8bb8ba960U, 0xbdf9e6a6bd98356fU, 0xbc9e3c38bd432a70U,
  0x3e1ab0b5bda59c93U, 0x3dd1bafa3b18e0c0U, 0xbd276f78bceb3288U, 0xbc0e01a03d624f7cU,
  0xbdc59142bdb27d08U, 0xbdc3ffcf3d5329ccU, 0x3de309d63c645480U, 0x3ddbd72e3e1a264bU,
  0x3b114b003d99e778U, 0xbd260b90bd7d84e0U, 0x3d7e92b4be15a8ddU, 0xbcf4215c3e0c4611U,
  0x3e0c0b31bd265de4U, 0x3d4fd590bdd6c88fU, 0xbde2b03ebd662ebaU, 0x3d97eb90bc3500b0U,
  0x3d4e120cbe106a44U, 0x3cd750e03e06aa97U, 0x3d5909e43e130845U, 0x3cf132e8bc59df80U,
  0x3ceccd763e06cc34U, 0xbdbf176bbe13ca6eU, 0xbdbc44243dc2b531U, 0x3d8e95f83e0dc885U,
  0x3dd5732a3dc95fe3U, 0xbdbe2d463c588646U, 0x3d520494bd9369eeU, 0xbdde37ee3b825e8aU,
  0x3db7492fbd857a62U, 0xbcfdd8803d89027aU, 0x3cca4da0be0fb454U, 0x3be66680bdc8bcd0U,
  0xbca0b158bd96e89bU, 0x3cdcea12bd4f42aaU, 0xbe1f82aabe0f0ab7U, 0x3dbb9168bc6c7550U,
  0x3e08b120bd2c0ba0U, 0x3d9342d6bd361450U, 0x3d5e2e633e00e1ebU, 0x3dbb2868bdd08634U,
  0xbd2c16cebd350d2cU, 0x3da49c293dcf2dd9U, 0x3aeedc00bb3c8c9bU, 0x3d10a13fbdf890f2U,
  0xbdafa62a3dd2af8eU, 0x3d8872ee3d195f1cU, 0x3d33ba7c3dc63d8cU, 0x3c2655c0bc3511d0U,
  0xbb69b179bdbfa4e7U, 0x3dab208c3da35230U, 0x3dab638cbe0a9a81U, 0xbd0debd0bd9e0b60U,
  0x3e1042d53b92f0efU, 0x3b2ee0c0bddc3786U, 0xbb8fcb8fbe0db518U, 0x3d8a78bebd7a4f37U,
  0xbe1fb362bd3262d6U, 0xbd1d86c2bdff8251U, 0x3cc291ac3c8c5b68U, 0xbdaaa546bc3ff7c6U,
  0x3dc100773e28bb41U, 0xbda6c68dbd1629b5U, 0xbde0bb703dd02ef3U, 0xbc745790be187238U,
  0xbd7dcdf2bd2eed76U, 0x3d3de4063d8feb06U, 0x3e0c1c913c1d60a0U, 0xbdd30030bd1ce26aU,
  0xbce785b03d34f4e6U, 0xbcc0293f3d935311U, 0xbbca35d9bd410b72U, 0x3d106158bda49f67U,
  0x3d12eba53d582fa0U, 0x3dfda922bcac98f8U, 0xbd636e28bc23c350U, 0xbe13e05b3df2291eU,
  0xbd3df9b43d8f38d3U, 0xbd8b254ebdb78f4dU, 0x3e16cf8dbd95222bU, 0x3d4a1f383ddda04bU,
  0xbddd66c33df657a4U, 0x3d91134e3d4874f8U, 0xbd2702743e006f8aU, 0xbd9507d43dd5fb96U,
  0x3d92122a3d4a6018U, 0xbdfc2d173d1d4060U, 0xbd4a21dabd946e35U, 0xbd3e35383d30db10U,
  0xbc53e3103d491c4cU, 0xbdf146603d46e4b4U, 0xbd748d84bdb3949eU, 0x3d284054bda87b05U,
  0xbd4dd9e8bce7c22cU, 0xbd4c1958bd8609f7U, 0xbdeb7659be17f6bdU, 0xbd34225e3d836f0eU,
  0xbde87ad6bd9d0a8fU, 0xbe036b18bdb82709U, 0xbdb04af8bd3d2094U, 0xbdef9d943da8227aU,
  0x3b0f93c03db62c9aU, 0xbdaa7aadbdf6e87eU, 0xbe1b5c403d90f70eU, 0x3dfce88ebca96798U,
  0x3e026785bd8189ffU, 0x3de02246bd8b0316U, 0xbc8ed3b0bc851718U, 0x3e06f42b3df798beU,
  0xbdcde09abd944240U, 0x3c62eeb03d751068U, 0x3dc5fe9a3e1815e3U, 0xbd8f72c5bdea6a56U,
  0xbdb098e0bdbead6fU, 0xbe0a9fe73d83cde6U, 0xbd5af5b4bdb21a84U, 0xbddfe9a9bd6813c4U,
  0x3b0d4880bd9445e3U, 0x3ce4f0f0bd6205f6U, 0x3d8df54ebb7b1d00U, 0x3e016fa5bdda9766U,
  0x3c1785303cd1cf58U, 0xbc9deb70bd28c748U, 0x3d91fd6abda49253U, 0x3dedfa3e3cc99108U,
  0xbd44fa4e3e09f82bU, 0xbdb7dd123e1c1b23U, 0xbd7293f6bbc3bd40U, 0x3db2989c3ddc2162U,
  0xbdeef3c2be00ea30U, 0x3d1227f43d67a760U, 0x3cc9e2f0bd6deb54U, 0x3e045b1fbddd71ceU,
  0xbda73ace3d45ca5cU, 0x3dbd37723ddabc52U, 0x3d95fa7e3e082db1U, 0xbd9ac32d3d026608U,
  0xbd9504f83df6e22eU, 0xbd09d7283ddfefeeU, 0xbca04270bdb7f956U, 0x3e0f96e53da1cb22U,
  0x3d840a58bc640e60U, 0xbda616d23dfb02f2U, 0x3df7dfd6bdc0d5d0U, 0xbd9025aebe0a932dU,
  0xbd2d9b5abdb8f8f7U, 0xbc5424203dd32e8eU, 0xbe1283fc3ceec640U, 0xbc04e6f0bd86485aU,
  0x3e0e53bf3dcf939aU, 0x3d02c21cbe02b60aU, 0xbd816f263ad97300U, 0x3da5966e3c14a260U,
  0x3e0ed491bd0c6a44U, 0xbdcddd1a3ca49548U, 0xbdea48debdf7ce0eU, 0xbcde9850bdc457f4U,
  0x3e17d8c9bdbfe884U, 0xbd11a8823d5a0a34U, 0xbc9c8670bc8893f0U, 0x3da15648bda2a270U,
  0x3d97a594bdb27b68U, 0x3d9cb3f2bdf1cd36U, 0xbda7dc083e1a0f7dU, 0xbd3cc022bd69ffb0U,
  0xbcf8dd18bdecf9bbU, 0x3da52352bc52f630U, 0xbe10fce4bcc89120U, 0xbdba2803bdaa0dbbU,
  0xbcb5fdd8bd83e9fdU, 0xbe0278d23d517188U, 0x3e01c5853c745dd0U, 0xbe0fb743bdd6c522U,
  0x3e1909ebbe0faf72U, 0xbda2bb9abcf0ed14U, 0xbde304d8bdac9268U, 0xbbbfaee0be098478U,
  0xbc0f2ca03e0f42c7U, 0x3c3797c0bd9c2e5fU, 0xbc2059803d2ebca0U, 0xbdfd4f383db7181aU,
  0x3d7440783be5e900U, 0x3b26c1c0be13f887U, 0x3d462560bddd8486U, 0xbdd1c4483e0c5c55U,
  0x3dc092d0bcfc3c4cU, 0xbcfe740c3d2b9a7cU, 0xbe0f2140bddbf240U, 0xbdef3cfabd02ad60U,
  0x3e19edc9bdec02e3U, 0x3d3aa888bda0d067U, 0x3e03e9f73c9613a0U, 0xbd80b7f43da5a9aaU,
  0xbe1b3d653dd68572U, 0x3d5c1b58bdb53809U, 0x3dc6b20e3e12cf53U, 0xbd346a8c3daa7ed4U,
  0xbdd6253abd066d92U, 0xbd9f8e78bcffe1f0U, 0xbd751e92bd8f72a8U, 0xbce0cf603c3ea4b0U,
  0xbd061856bd23d7f4U, 0xbd8260593d998b8eU, 0x3c602b90baddd280U, 0x3d3d4e94bdf3b45aU,
  0x3dba2c88bdefbeeaU, 0x3dfc744abde78024U, 0xbdf44d5abd9fba1eU, 0x3aa647003dc305caU,
  0x3e156909be17de29U, 0x397d54003d9d6226U, 0x3d27d1083d3bffbcU, 0x3d998508bd8cb875U,
  0x3de6e12a3ddd24e6U, 0xbda766dcbcd0f280U, 0x3c6c90903df3d8a6U, 0xbd8c2a63bd385d30U,
  0xbd2c8866bc3a2830U, 0xbd2a65483e1c4c45U, 0xbe09c82a3d1a6f08U, 0x3b0f88c0bd46505cU,
  0xbc8087c8bdd88c48U, 0x3dadb1e0bd877223U, 0xbd87c9ea3b1a01c0U, 0x3d8bc7f83c2bb530U,
  0xbdaa4b68bc2be930U, 0x3cc033e8be073fe2U, 0xbded2001bd29474eU, 0x3c5f36703e16c6ddU,
  0xbc05a4a03d99c77eU, 0x3d4f864c3dffd64eU, 0xbd6ba3eebe0e6810U, 0xbe1c65d43de278faU,
  0x3cf5e2e8bd15351eU, 0x3d902d563cd56438U, 0xbdad2d56bddd52c9U, 0xbcff89003cf512c8U,
  0x3e01bb833cf341c0U, 0xbd942c7e3da7fbb8U, 0x3d29b67cbe176588U, 0x3ced3a58bd8be4f0U,
  0x3e173681bdd4144aU, 0x3b055640bd0c18beU, 0x3d9367cebdd386b3U, 0xbacfe780bdc27184U,
  0xbc12f4d03c7f0b70U, 0xbd154f5ebdc5b614U, 0x3df6ca5abdc3c25cU, 0x3d75ad683c38ef90U,
  0xbc338b70bc378d50U, 0x3dd27572be148922U, 0x3dceee86bc9f7698U, 0x3d97e1c43da1f86eU,
  0xbdf47fa4bd3feddcU, 0xbde85b6e3cfcae58U, 0xbdef8a4fbd775eaaU, 0xbce428283d090c80U,
  0x3d555568bdc660c2U, 0xbdca4a143e078de9U, 0xbdee7153bd5a528cU, 0xbde5999d3d4bbcb0U,
  0x3d58ac20bcbef0f0U, 0x3ce2ded8bc649d30U, 0xbe0c3e98bc476d50U, 0x3e06b951bcbb43e0U,
  0x3ce911603d96b480U, 0xbdf3a496bd0f28f6U, 0xbde671be3dd5362eU, 0x3dac85243bd2f740U,
  0xbdde29f6bce9457cU, 0x3d0aca943d0cf830U, 0xbcf83588bc251cb0U, 0x3db5e0a2bccb0370U,
  0xbddfb5663d5f5afcU, 0x3d88c3f0bc9698d0U, 0xbcb28310be1b0d57U, 0x3c0346b0bd4a1462U,
  0xbc7741e0be0b2417U, 0x3d1b0f783dd42006U, 0x3d2896e8bdc70cfcU, 0xbc812600bdcb41faU,
  0x3d26226c3d1451e4U, 0x3e14bf25be007b7bU, 0xbca02d50be10da52U, 0xbdc5ed4ebd4c9810U,
  0xbdf114723b2eb5c0U, 0xbcba67f83e0a333dU, 0xbd9b77cf3ce412f8U, 0x3dd0573abcdcb300U,
  0x3d5cbaf0bd5d99ceU, 0x3dfd7072bcf7c3a0U, 0xbda86a5f3dcd20b2U, 0xbd35b57ebcbde520U,
  0xbb02fd803e153871U, 0x3df9b7423dd32402U, 0x3d97ac7e3c7f7e70U, 0xbd1b85203c877b50U,
  0x3d3bb4dcbe132b1eU, 0x3cfd7068bdee094cU, 0x3d2c6aecbdcf7691U, 0x3db643eebd4cf4feU,
  0xbc96d7883d5db3e8U, 0x3e06bb0fbb8c83a0U, 0x3e0d1bd5bde3a274U, 0x3cd468c03d5fda6cU,
  0xbcbc9068bd94e384U, 0xbd8125d13c749600U, 0xbe0a6466bd9e85b6U, 0xbda85d7ebdeb7b88U,
  0x3e1897c3bc96b268U, 0xbe1bc1e5bde8ebf3U, 0xbd92c3f13e1688f7U, 0x3d490cf43d53bbd8U,
  0x3e07fe7b3d116ca4U, 0xbd9182cfbd8a485aU, 0x3e058b173e17e3f5U, 0x3d5f57f4bdb226ebU,
  0x3d9d15c03d3d024cU, 0x3d4e6098bdcc808cU, 0x3d05a5f0bd398600U, 0xbd56b67a3d049520U,
  0xbde4922e3d89dec2U, 0xbd8a40c1bdc5b640U, 0xbda5d68fbdf677fdU, 0x3dee1622ba4cdc00U,
  0xbdbe74d8bc805a10U, 0x3d62e86cbdd1a000U, 0x3d9f5270bdc35a9aU, 0x3d88df96be1bedb6U,
  0x3d9dd8463ddfb226U, 0xbe18caf73d8a1060U, 0x3dfea9ea3c68ada0U, 0x3d8744eabbb21c60U,
  0x3e0fdf973e164459U, 0x3dee2536bde2ebaeU, 0x3de595debdd4e9a0U, 0x3e0c690fbdb3cbcaU,
  0x3d9ebd44bdca00d8U, 0xbd1d620c3df864d2U, 0x3dab2c0ebe09fe77U, 0xbd044d8ebd8a3473U,
  0x3dd404733daf5fd2U, 0xbd50ac59bd25a952U, 0xbc3e9940bd244571U, 0x3df8a70a3d7e43e8U,
  0xbdf237133dc0b087U, 0x3da00bc23de72f88U, 0xbdc8ffc9bda5128fU, 0xbe0b3cffbc6fa4f7U,
  0xbd44d263bdc53e52U, 0x3dac8586bdaf40afU, 0xbe10a76a3dcee3ceU, 0xbe1162533d6d5049U,
  0xbd494af43df6573eU, 0xbd4bfa2e3d1a697cU, 0xbda8b91f3cf716b8U, 0xbd159b873e0e3169U,
  0xbcbc9458bdd24892U, 0xbd9ac36d3df44d16U, 0x3da28908bdb13027U, 0xbc69a3303d2e6bb1U,
  0xbe091f843d29c3a1U, 0xbc8d2a8ebb8351cbU, 0x3cc808083d967ca1U, 0xbda6808c3b379f00U,
  0xbe003281bd962403U, 0x3c8b5e803dbb40ceU, 0xbde92a023e0bfef1U, 0x3dbd77c43d3a7338U,
  0x3c9f1e013de6b3f7U, 0x3ca8c78dbda577fcU, 0xbe0857623de93e5aU, 0xbdb3214b3dbcd86cU,
  0x3b9291e0bdc3d043U, 0xbde07d963e069fcbU, 0xbdce46a43dd26c2aU, 0x3d0555d9bdf39a13U,
  0xbdc3e6e33d215ef4U, 0xbe080e083dad6f78U, 0x3dbe99d53d8b2bdeU, 0xbd9003c53ca448aeU,
  0xbe0083e83b328560U, 0xbda8d558bc1d588dU, 0xbd8e8ab8bde62d22U, 0xbdb0560d3da9b920U,
  0xbe047dd13d967425U, 0x3de71684bdce92cdU, 0xbd324311be11b83dU, 0x3c5e1fb0bd37be53U,
  0xbdd01c163e0e6b77U, 0xbdd44b81bc21411eU, 0x3de5d4b83d05cfa9U, 0x3d44aabcbdfeb586U,
  0x3def9afc3deea7baU, 0xbd453d893d8f734aU, 0xbc5725e03d9509c6U, 0x3d8f02aa3cdeec60U,
  0x3ce38ed8bc949fd8U, 0x3d80b82e3d3317e8U, 0xbdcbb4d13d01cdb1U, 0x3c9e3568bdc3106dU,
  0xbd2ccbd0bd2dcc31U, 0xbe0ed58ebd094556U, 0xbe05dd793da8d99fU, 0xbe1f25e3bdc128cfU,
  0x3d313578be15cbcaU, 0xbd0d5cbb3d8ce7c3U, 0x3da24f0a3e05bfc8U, 0xbb69c4c03e0bf419U,
  0xbdc614223cf16b70U, 0xbe0427ad3df28f8aU, 0x3de21f34bcee4e50U, 0x3cbd3340be0deefaU,
  0xbe11aba7bdf10a3fU, 0x3d089bd4bd2e6160U, 0xbe1b75f9bc8554aeU, 0x3dac12bebd814ed6U,
  0xbe12e49b3daa8c7eU, 0xbdd0d6e3bdb98cb8U, 0xbe0120d43cec5208U, 0x3d7e5860bccbd3b8U,
  0x3dfda690be15ed7aU, 0xbb2f7e003d4d15b4U, 0x3db83fcabc9d50e8U, 0x3df3d2a63dad255dU,
  0x3c4b2170bd90fd34U, 0xbdbb604f3da68840U, 0x3dda461abce81aebU, 0xbd47df7a3db3fc60U,
  0x3df19222bdb06b46U, 0xbdbe2910bd922578U, 0xbe102ed1bb8bac60U, 0xbd4f7444bda9dc52U,
  0x3e119d8c3deea79eU, 0x3dc0996dbd7ea9acU, 0xbddcc2c8bc786b58U, 0x3b154c98be1dafbeU,
  0xbd47a70ebe1bca44U, 0x3e053e2d3b11a1c0U, 0x3df8882cbe15d9c8U, 0xbb4250a1be030ca3U,
  0xbdbacc19bc1ca530U, 0xbe020e23be0f7af4U, 0x3b0d74f7bcd82438U, 0x3e1357753d82927aU,
  0xbd8b5084bd6adf0fU, 0x3d6d53943d7f2083U, 0xbd32cba0be21efffU, 0x3d20de343e1ba445U,
  0xbc41d300bddf412aU, 0x3deeeb413dbcfadcU, 0x3dc681543cf7b4a0U, 0x3d45362cbd22505eU,
  0x3c38ebd7bd7ceb45U, 0x3db249143e200a5aU, 0xbdbd3fd5bcb6dcd4U, 0xbe13f57cbdf4fea6U,
  0x3e022e233e1a4f6dU, 0xbe1a2080be09adb3U, 0xbd89b79a3d49b160U, 0xb97c3e273d86eaceU,
  0x3b869280be0bf207U, 0x3e1892e5bd0656f4U, 0x3cd98b383e09ac1dU, 0xbb5cb340bd128dafU,
  0xbd4494573b29a0cfU, 0xbbf264f03e0391b9U, 0x3daa0e433d1c69bbU, 0x3e1332403d7abcbcU,
  0x3ca072b83d17f28cU, 0xbcc4ed30bdaff0f8U, 0x3dad6f78bd9cf380U, 0xbdc82c183e09a24bU,
  0xbd3b31f0bdb02720U, 0xbda9a09dbb97ec60U, 0xbd7e0f94bcc80e40U, 0x3da1e0c6bd0994b8U,
  0xbe00e46d3da0549cU, 0x3db460543db8627eU, 0x3d34dc54bc949708U, 0xbdbb0f643e0a7f8bU,
  0xbbecd7003d5df73cU, 0xbdbf2e88bd4e865cU, 0xbde577263de7b7e2U, 0xbd2c83ec3b8aec80U,
  0xbdb6fe043c3e90d0U, 0xbdae73c53d831a2eU, 0x3da3ab7a3d8d9838U, 0x3e0709053de9670aU,
  0xbe002a783d5f2874U, 0xbd3945b43dc5cff8U, 0x3e01ca493d45dfe0U, 0xbdefc415bdc16404U,
  0xbb1bca003d3773f4U, 0x3d99e544bdb93f76U, 0xbddff4aabd82066cU, 0x3dc5e7423d273638U,
  0xbceb1fa03d8e29deU, 0xbde3094e3dfbd312U, 0xbe15d8f23dbe5684U, 0xbde5f116be078977U,
  0xbdc3522ab927d400U, 0xbe15fd4bbd13263eU, 0x3d144a00bcd61cc8U, 0x3db8d68ebd14f04cU,
  0xbc5575b03c7a8290U, 0x3ce32128bdb41e27U, 0x3d57bb0c3db7df50U, 0x3d9eb7163e06bea3U,
  0x3d3165a03dd823c6U, 0x3dba910ebd99e75bU, 0xbd9049633e17eebbU, 0x39cdd6003d09e76cU,
  0x3c8df9d8be177179U, 0x3d5639dcbde17e92U, 0xb9ee5400be0e5fb6U, 0x3b0b5e003c0685b0U,
  0xbd53feb4bd779e6cU, 0xbe09ce01bcd64db0U, 0xbd1b7f00be0b2311U, 0xbe028dd8bcae2fa8U,
  0x3d7003283d9bbd2eU, 0xbd620e58be1bd6a1U, 0xbd6f5fba3e0e260bU, 0x3dc4cfacbc6c3470U,
  0x3d816db6bdfd0169U, 0x3c1ce980baac8300U, 0xbe0109d43dc67a52U, 0xbdd3440c3d256118U,
  0x3b86cc603d7e0a44U, 0x3de58db23d2411d4U, 0xbdaf0fc0bd3e3178U, 0xbe16afefbde5c47bU,
  0xbe1ca1b3be0762bbU, 0x3e1345bf3d83fcb4U, 0xbdc0980f3dec967eU, 0xbdd091803de85cfaU,
  0x3cef32c8bd8fd790U, 0x3c6799e0be1b27a8U, 0x3d8348083e191d0dU, 0xbddcb0ae3cfc2718U,
  0x3dedf5bebd88d0d1U, 0x3d90808a3dc151eaU, 0x3d3c3700bcfbd110U, 0xbdf54b383e1ab105U,
  0xbe0bb621bdd91d9aU, 0x3df0c3d63dc58614U, 0xbdd76cf23dc4a780U, 0xbd2871f83d96e83eU,
  0x3dc8e2babd739190U, 0xbd34d2c4be0ebb4cU, 0xbe0450db3db27028U, 0xbd540a123bf5fde0U,
  0xbe182174bd52ef3cU, 0x3c2cd1f0bde5ccc4U, 0xbdf569e4be0963b0U, 0x3e0314e13da9ebaaU,
  0xbd7e69d4be17401eU, 0x3e08260dbe0c171dU, 0x3dccc362bda06a01U, 0x3e19bcffbe0d01afU,
  0x3ced03d8bdaec779U, 0x3d8fa5e2bd946d2dU, 0x3d2db4ecbdf722d2U, 0x3e18b0e93d93a464U,
  0xbc282a60bddc56f2U, 0xbd95c4333dc8de02U, 0x3d0022443c9b0718U, 0x3e0ec23d3e17b403U,
  0xbe1c0de63e0ee3b7U, 0x3debe2aabe049895U, 0xbddb31da3dc299beU, 0x3e1493ed3e0d939bU,
  0xbd330d7e3cf50328U, 0x3d90502a3d94810eU, 0x3d2ecb503df32a4aU, 0x3bbf49e03d0aa220U,
  0xbd9428cdbd88d6bfU, 0xbdaf43cebdfb2501U, 0xbe03ac083b56de40U, 0xbcc55078bdf3b6e1U,
  0x3bd298003db52f9eU, 0xbdefb85ebd8c1052U, 0x3d87e728be0ac356U, 0x3d898d5ebdd885e8U,
  0x3d40e9a83e179d49U, 0xbe09503cbd027196U, 0xbd4ae0fe3d74f5a8U, 0xbdf5af3a3d555e20U,
  0x3defa57abaf4f800U, 0x3dcf2b1e3c6283b0U, 0x3de1f3ee3ddf8712U, 0x3c43b4503e05e71bU,
  0xbdf6aa9a3dbca578U, 0x3e18e7cd3d12ba78U, 0xbd549ec4be18ebd0U, 0x3ca75f503c449a20U,
  0xbe0147053e05b1e3U, 0xbd21209a3db0edfeU, 0xbd07ca6e3d2896e8U, 0xbdc6e5e8be015eb1U,
  0xbdb4e9b63deca78aU, 0x3da9850abb120c80U, 0x3dab35023d8111b4U, 0xbcf1a26cbdc71554U,
  0xbdbd10f63d8a6c9eU, 0xbc73b9b0bd472478U, 0xba8a18803dced60eU, 0x3d5e10ccbdf36f6cU,
  0x3e0db2433e13f9d9U, 0xbdb7ab38bddaf786U, 0xbde09c4dbc80d7e8U, 0xbd6a29423dd112c6U,
  0x3e0ea2ddbd7cef9cU, 0xbe16fff93df0dfa2U, 0x3de3bd4e3d9161beU, 0xbe03a740be14e430U,
  0xbd874aad3d89b0c0U, 0xbe137980bda97446U, 0x3dc713a6bd45a6b0U, 0x3db2ee483deec306U,
  0xbd7800223d8fe7b2U, 0x3c9dbf703d0ec128U, 0x3d04b14cbd844562U, 0xbd287dfcbdd780c0U,
  0xbadcca00bdd4d216U, 0xbdbb109e3e071149U, 0xbdb5760f3e063b83U, 0x3d81bd043de8898eU,
  0x3d23f9383b2d2440U, 0xbe091d33bcf634e4U, 0xbcaf4df0bbc76ca0U, 0xbd7167ac3e00c83fU,
  0x3e0ef4c9bccdd1e8U, 0x3e08d747bd444fd6U, 0x3cffb500bde5d98cU, 0xbe0b6ad4bd465ddeU,
  0xbe1728a6bda48887U, 0xbd530afcbdb5a0d9U, 0x3e08cf5fbdf06580U, 0xbe0b70b6bc8b32b8U,
  0xbe016da0bd4f2da8U, 0xbddf161abe163f18U, 0xbc61bd703e1616c9U, 0x3d40b56cbdb433bdU,
  0xbe05db5c3def85daU, 0x3dbe3ce4bd422852U, 0xbd7e69243ba10220U, 0x3d26c350baf77d80U,
  0xbe04f554bd4f069eU, 0x3dbf53a83e189cf9U, 0x3da1d838bcb45018U, 0x3dd76ee6bcfab784U,
  0x3dd5c9ae3d054b74U, 0xbc1f8fe0bd9a6f21U, 0x3dab711a3df987beU, 0xbe03ed2cbdd45d60U,
  0xbde5bce7bd4d0820U, 0xbe0d098cbd9d3f3eU, 0xbc0add00bdee6f16U, 0xbb9292803daf0a16U,
  0xbdb2072b3e043641U, 0x3d1aff68bcf645bcU, 0xbe13ff1cbdff9134U, 0xbd6669f0bde62af0U,
  0x3dfd7c36bdf2b18cU, 0x3d32cecc3cb971c8U, 0xbd1335183d615a88U, 0xbbd245203d1bb3e4U,
  0x3dc4c070bd4145beU, 0xbca19588bb751540U, 0xbdf1fc143d8575f2U, 0xbdba88a63c8071b8U,
  0x3cf54d903d4abaa4U, 0xbdf2ba8bbd893e8bU, 0xbdccbfe83e114459U, 0xbda9d896bdb1e4a1U,
  0xbcd8ae88bda07c56U, 0x3c5b87e0bd9856d3U, 0xbd9f0623bda6048bU, 0xbca89ad8bcd85150U,
  0xbda6586b3d3a0eacU, 0x3e14ff5dbdd56764U, 0x3dcfa9c6bce61980U, 0x3d78c6a83d359918U,
  0x3d9835d6be02ac80U, 0xbe1ba443be1184a0U, 0x3de0c7ea3dce374eU, 0x3d8ee4303d47292cU,
  0xbdc420ef3d60b4a0U, 0x3cddda18bcee9c9cU, 0xbd6f42383dd11e16U, 0x3d46b06cbe176979U,
  0x3dd1aadebded55e4U, 0xbce111983b16c040U, 0x3d47c704be0e7a72U, 0xbd5ce4bcbd99b51fU,
  0x3d81ab7c3dc5d5a6U, 0x3db38cc6be155d32U, 0xbde916433ddef87aU, 0xbdc82246bd1867f8U,
  0x3d67c610bce556d0U, 0xbe1b046f3df20e7eU, 0xbd8eef88bcf39808U, 0xbd7aebecbc85b380U,
  0x3df287963bf01ae0U, 0xbd8ab4703dd1239aU, 0x3d1c65d43de43e92U, 0xbd0012d83cefa2a0U,
  0xbe0ee9f43e01306dU, 0xbe04e42ebb669040U, 0x3d9c87aebe12fdc5U, 0xbdcb5d88bd9e478aU,
  0xbda1eb9b3e069a77U, 0x3ccf90783dce1a82U, 0xbd009d50be051e20U, 0xbd8dfbcabb9d8340U,
  0xbe0b9de73de6256aU, 0x3e1b7f9dbd3bfc84U, 0xbdbf2b78bd40d560U, 0xbdf7ab6b3dcefbeaU,
  0xbe0292c6bca3fe80U, 0x3e05b8b3bd9903baU, 0x3d30dc4c3d6b8030U, 0x3dc141b4bded10a3U,
  0xbe1ca83c3de1851eU, 0x3d979c4cbd96f285U, 0xbd9d53ee3d22eaecU, 0x3d491c683d1a206cU,
  0xbdc9ffb2bd04cffeU, 0x3de122323d12cb58U, 0xbdf272cdbda91cbeU, 0xbdc935ffbe098622U,
  0xbdd9e2103dd9c5caU, 0x3cfd35a03e0a58cbU, 0x3ddbbb1a3d087108U, 0xbcb8e230bda8e184U,
  0x3c539960be129133U, 0xbd80161dbe024ff2U, 0x3aafc6803cdaeaf0U, 0xbdb64f1b3c585db0U,
  0x3ddd491ebdbc15cbU, 0xbd828bc9bd91ce97U, 0x3d1f6c543d52f844U, 0xbdc84e10bd24aea0U,
  0x3e1c6549be16264eU, 0xbdb93f4fbe10c334U, 0x3c290270bdcb9125U, 0x3c8543a83dc773aeU,
  0x3dcb65663d222bf0U, 0x3db830d03e1b9b5dU, 0xbdc7bd8fbd535ff2U, 0x3d05a4843dc2bb72U,
  0xbdc268a83e0d28c5U, 0xbd8b252c3cea2dd0U, 0x3c7df3503da7b354U, 0x3d30a410bd4d5dc8U,
  0x3e0e465b3d5734a0U, 0x3d74e2ac3d9b8b36U, 0x3d1e2880be092d9eU, 0xbd9919ecbc7a4090U,
  0x3d91bdac3cd67608U, 0x3d010a343dc4ba34U, 0xbde89ca13d9d9548U, 0xbe06f143bde60092U,
  0x3e19633fba0d7d00U, 0xbd39daaa3d1af0b4U, 0xbe04dc703e1bc8cdU, 0x3da28312be03482bU,
  0x3d9ebabe3ca22138U, 0xbde6cff4bd98d633U, 0x3db60f263be2e340U, 0xbccb1b003dd47866U,
  0xbdaaa335bc3bc3e0U, 0x3e09d9633ce583c0U, 0x3c4ad0003ccf89e8U, 0xbdd81aa03e065433U,
  0xba8564803dfdb78eU, 0x3dcfcc523e10dfe9U, 0x3e10e7b9bc795520U, 0x3dc0f0b8bc9639d8U,
  0xbda8f8b53dc58632U, 0xbe1cab073c854d60U, 0xbd59d84cbb320380U, 0x3de0bfd6bcd8ad60U,
  0xbd85d62e3e16d58fU, 0x3d61b7e4bba419a0U, 0x3b5cf9403e084477U, 0x3daf1a5a3e01054bU,
  0xbdfb1be93ca80f07U, 0x3d9b6badbcc8a77eU, 0x3d89c086bdfa8402U, 0x3d618228bd4b8dfcU,
  0xbdc5404a3da43e18U, 0xbdd93f1cbbe2a570U, 0x3c01abdbbca7c748U, 0xbf0257c53df379e6U,
  0xbd8aa761bb91eec0U, 0xbd3d781cbe14caf2U, 0xbe0aca0dbc8693b4U, 0xbdc1203cbe106235U,
  0xbe055a1ebc50bd20U, 0x3db7bd2ebe1c84b0U, 0x3d4ba9f1bda41d3bU, 0xbdb07dc03df08d6aU,
  0x3e048902bdcb4f95U, 0xbd4e846abcaed865U, 0xbe8110f4bda2d8e1U, 0xbd99f608bd7e2db1U,
  0x3d26d1703c8f19e5U, 0xbc4fe7e6bc4b3438U, 0xbdc1d6c8bdf577a2U, 0x3c152ea73c9e2838U,
  0x3e0c7c0dbbf63046U, 0xbd9f224fbdcdca71U, 0xbdaa81a43dc8724eU, 0xbe012d9d3dae873aU,
  0xbc67ac69bde937ecU, 0x3e0fcbde3e124ba9U, 0xbd73570a3e0d54fbU, 0x3e1a869f3dcbbf73U,
  0xbd2e5b54bbae38f4U, 0xbdfcf560bd04b044U, 0x3d96f0eebe002348U, 0x3d77041a3de496f6U,
  0x3e2162213cd023c0U, 0xbd32e6923db8a41cU, 0xbd2f31fb3d8caa46U, 0xbdb3d9bd3da45a8bU,
  0x3d95aeb83d932ae4U, 0xbd4abd523d4ea5baU, 0xbddef2c73dc7ac38U, 0xbcba3f78bd18300eU,
  0xbe0dc85e3dcb7918U, 0xbc6479c53e0f3925U, 0xbdd8999ebe17b98bU, 0xbd2e6afcbdaa6278U,
  0x3da9a0f7bd4e8e09U, 0xbdb320c2bdacdbb2U, 0xbcc61383bbfb9deaU, 0xbdb9133d3d629ac0U,
  0xbd6815d03cb11d80U, 0x3dcbeb033da493b0U, 0x3c3e3f303da0fb80U, 0x3dfcb3513e16a87fU,
  0xbd6267c0bcaeeb2bU, 0x3db921303de52de6U, 0x3dc413363cf5eebeU, 0x3da9165aba9be392U,
  0x3d24450cbc8b2353U, 0xbdf51f333c09f6e0U, 0xbd3c5ebebc918f44U, 0x3d7bac69bdab6b48U,
  0xbd9a8478bb7b0400U, 0xbdc2e240bd9b82e3U, 0xbe1988c8bdd0454cU, 0x3dcaa3563ddd25feU,
  0xbe0a510d3e0bb173U, 0x3e02588f3dfbb1caU, 0x3dd8db5a3d37b99cU, 0x3e1967fdbd9ae875U,
  0xbd8cee053e0a6ffbU, 0x3e0b6ec7bdfcd90dU, 0xbe1290b43c5e1d90U, 0x3a5c94003e0ae1abU,
  0xbdfed6863d99a8eaU, 0xbd812bddbd1fc056U, 0xbc82ca883cba1bd0U, 0xbcb99678bd5b1014U,
  0xbc3b21503e1b3855U, 0xbd05aeb4be1c21a5U, 0x3b1d38c0bd995bf7U, 0xbd526668bdddce5aU,
  0x3cf7e848bd8f2544U, 0xbcdc53a0bdcf7f72U, 0x3d160fe4bdc48b64U, 0x3e1472f13de63386U,
  0x3de63eeebdf42a7cU, 0x3c0278503ded27ceU, 0xbddb6e4e3c219180U, 0x3daaca3a3d11148cU,
  0xbdf035c63da7e6ceU, 0x3c4d97903d9e3a2eU, 0xbd94325ebd62c734U, 0xbe0e523abdacf4c5U,
  0x3df72d06bd4a3346U, 0xbd5574d4bd85a65cU, 0x3ddab10abc416c00U, 0xbe0fe2c2bd188fc6U,
  0xbdc5e7b2bdeae9acU, 0x3db0fe083de9cc22U, 0xbdc3b1fbbd826a47U, 0xbca3f2783da67150U,
  0x3d9d01fcbd3f6896U, 0x3de9fa163c634c40U, 0xbe0289a03dc03718U, 0xbdfae057bdffd73aU,
  0xbcc748e83d9c3404U, 0xbde304983da5e190U, 0x3de19696bd9db27bU, 0x3da9109cbe06120fU,
  0xbe17000abd8bf18dU, 0x3d26eb203dae473cU, 0x3e14eabb3d5d8ac4U, 0xbd9d4f2a3dda1ddeU,
  0x3b1b4a80be10edb9U, 0x3c56ce70bda57aeaU, 0xbdee68e23e0e29f7U, 0xbc5a58003d82dfe0U,
  0x3b7478803dc8edf2U, 0x3db69004be153989U, 0x3ca6c7e8bcb30d28U, 0x3d9b07f43e04208fU,
  0xbdba8f72bdf60edeU, 0x3dc8c0523e14f08dU, 0xbe139eae3d4cc05cU, 0x3d813a7c3dcb48caU,
  0xbd4085ce3d669034U, 0x3dff92ca3d8ee052U, 0xbdaa7da4bb922440U, 0x3db3754a3dddf2deU,
  0xbdc6e2ec3d6c1b14U, 0x3d4ad8ecbdb15349U, 0xbe04839ebdfaa40bU, 0x3dd5ea8a3ddb50feU,
  0x3d8f3ca6bdadf8e4U, 0xbd30f3b8bdf2411fU, 0xbde826ac3dbd6db8U, 0xbdab2f7abd90d564U,
  0x3d4555543e0c7d71U, 0x3ddc8a86bd1b5750U, 0xbdde55703d01926cU, 0x3e11ef61be1111dbU,
  0x3d94f4483dbf13bcU, 0x3dcdaa7a3d50d834U, 0xbdd4697d39ba2400U, 0xbe17d1603da01de0U,
  0xbdd0ee78bd29389cU, 0xbde4d67f3db07956U, 0x3daa8e1abcdd0710U, 0x3cb80be0bc4c5920U,
  0xbd8556ad3e15331fU, 0xbd509aa2be188bf3U, 0x3e152f9d3b24b080U, 0x3d5f5384bdc01e1eU,
  0xbd226fbabc78c760U, 0x3e084c2b3daadd3aU, 0x3d9212a83de3b5a2U, 0xbd681cb8bd22f1daU,
  0x3da0954a3dea4522U, 0x3d9130b23dd9d40aU, 0xbe1214643e04c2dfU, 0xbdd92fbebda7423bU,
  0x3ddc1e923e0d4f79U, 0xbc50bbf03dcf6a7aU, 0xbd935701bd61f9caU, 0x3cc036d03d37754cU,
  0x3e10e7b9bd9d7ac6U, 0x382700003d8e15d6U, 0x3e0df0633d9f955cU, 0x3c7a7f103d4c60e0U,
  0x3cb1ca803d61c938U, 0xbe07ceb1bd32a47aU, 0x3d6c12203a09dc00U, 0xbe1ad63fbdb03962U,
  0xbe062460be13f15cU, 0xbd3ae3aa3d81193eU, 0xbe1945d5bd809b62U, 0xbde2c267bdb67bfbU,
  0x3d783510be1ac7a8U, 0xbdfd9c30bdc70efaU, 0x3d163b68be020cc2U, 0x3e1b46e5be1bfd44U,
  0x3c381ef0bc1f3140U, 0x3d9f652c3cd89270U, 0x3d9835cc3b135180U, 0xbdb1af81bcc5cdb0U,
  0x3d4085ccbbb57600U, 0xbe1cba2fbe1a8cc1U, 0xbdf7865abe0dcb9dU, 0xbda992cc3d1bc198U,
  0x3df8e45abe16a619U, 0x3dafb988bd609f58U, 0xbdb8b8923cd73be8U, 0x3cf18d003dd54a5eU,
  0x3df776ae3c705420U, 0x3e1150b5bd996c76U, 0xbcd101983cc3c900U, 0x3de668363d91db3eU,
  0xbcf49e0cbd709894U, 0xbda9c508bdb5efa2U, 0xbd44411a3df639e2U, 0xbdefd4c5bd58ef68U,
  0x3dba6aa6be1295e8U, 0xbe0fae5d3c8800c0U, 0xbdb95af13db392f0U, 0xbdb05302bda02845U,
  0xbd30c7e4be0d0739U, 0x3d856dd0bd52b52cU, 0xbe0162ce3d93d824U, 0x3a165100be0cdedfU,
  0x3e1a2641be0ae10eU, 0x3d364e40bdd3d06fU, 0xbe0484843c9a8160U, 0xbde1cc703c4b3360U,
  0xbcdb3a303d24741cU, 0xbe0fc5653dbd1f78U, 0x3e146ab33c800b60U, 0xbdbdbc463dcc0286U,
  0x3d23947cbdb60a2dU, 0x3cab43303cfcac98U, 0x3d4758683d3c8818U, 0x3e147ac93b3f3380U,
  0xbd7203b63cf8bbe0U, 0x3e0c06f93d9b9fc8U, 0xbd29eedc3e01261dU, 0x3ca5b640bdb7e229U,
  0xbcb80ab83dd9de5eU, 0x3dc56642be174ca0U, 0xbd4615ea3ca81e28U, 0xbc67eb60bdd3d72cU,
  0xbc70ef10be129499U, 0x3e188e11babbdf80U, 0xbd0a0fba3e06d3ebU, 0xbe1b675f3d4ed60cU,
  0x3d704864bd169090U, 0x3caf59083d855fbaU, 0xbd1782383d3ed940U, 0xbca1d068be10121fU,
  0xbe007cf23e04e455U, 0xbddc9f9c3d7942acU, 0x3dda528a3cbb79c8U, 0x3e0a274dbc4bb130U,
  0xbd1ee0a23de762beU, 0xbd8beb77bdf98852U, 0xbba1ca603b571880U, 0x3c1f0f203e179d0bU,
  0xbde1b113bdd591b9U, 0xbce5d9a8bde901ffU, 0xbda71b403dc1efd4U, 0x3d0778683e1836cbU,
  0x3e0a6c033d875b62U, 0x3dcbfa763d4ddd14U, 0x3df4e6423d24c534U, 0x3d8cb8f83c608370U,
  0xbced5ff03d7e9ad0U, 0xbde7af69be0f0a92U, 0x3d5e77ac3d3d7600U, 0xbc393170bda4081fU,
  0xbd2edbf83b1bd140U, 0x3cbfee78bdc16d20U, 0x3c1e9f503dd32c2eU, 0x3e151ce3be0b8d66U,
  0x3d06ea58bc990ae8U, 0xbd76e950bdc4f4e0U, 0x3c99a6603c565bf0U, 0xbd6c79ce3b1bfb00U,
  0xbdd1ae41bd25f18aU, 0xbd1b68d8bd1ac070U, 0xbde425723ddd8a52U, 0xbd843653bd37bddcU,
  0xbd24caf43d0f7800U, 0xbd7464563d0661c0U, 0xbdef7c343d344890U, 0xbdd8d73dbe0da5a5U,
  0x3d826c6c3db07800U, 0x3e1a9e453dc5aac0U, 0x3d88d1903d24a064U, 0xbde87e02bd7b4b9aU,
  0x3d8788343d0aa93cU, 0xbd98fce03c6865d0U, 0x3e01d2f7bd40aedeU, 0xbdae08d53d09b4c0U,
  0xbd85e2d53de3ef72U, 0x3c3bbb20bcb731a0U, 0xbdb66127bd9b8e55U, 0x3dfd6c1a3e05850bU,
  0xbd3b12be3d5a2a78U, 0xbdd1dabf3dcdb33aU, 0xbdde54713dce0e56U, 0x3dac0f563ddf17aeU,
  0x3d20e1383da35580U, 0xbe051e5b3dbd24a2U, 0x3e0dfb65be1a7774U, 0x3d7e509c3b57ad40U,
  0xbe15ad153da616e6U, 0x3d718228bd30ba94U, 0x3da3d2d4be01fa60U, 0x3df0bdae3d4e26a4U,
  0xbdca5972bd9d9686U, 0xbd4b9474ba179c00U, 0x3e105b153da44526U, 0x3e039385bdc1e08aU,
  0xbe0937633dab25b4U, 0x3dcec796bdaf4d1aU, 0x3cdefc60bd4e451cU, 0xbdd9e5f23d8a166cU,
  0xbe1700e23ab7fe80U, 0x3dca85623def0d76U, 0x3df025be3df858aeU, 0xbe1078743de84e8aU,
  0xbd8bd73dbdfe5e72U, 0x3bc1a380bd43f800U, 0xbb042900bc244b40U, 0x3dbdac4c3c555960U,
  0x3dc802663d9df2feU, 0xbd592b763df8fc52U, 0x3dbb6db2bca545f8U, 0xbde0959abdc1b580U,
  0x3e13b61cbdccb26fU, 0x3dfc40e5bd2733e1U, 0xbcd81060bdc281bcU, 0xbcd22f683dfd86aaU,
  0xbe0d344a3e1f838fU, 0xbe19d43f3dd15588U, 0xbda81328bd824bdaU, 0x3ebe2d1a3b8c6a0cU,
  0x3e0986ecbd9b8f8aU, 0x3d01b3c0bc9ba5b0U, 0x3e1065c5be148c17U, 0x3d0848a8bdee40deU,
  0xbe121a7c3b118780U, 0x3e0a4599bd91e8ffU, 0xbd7dea37bdd723a2U, 0x3e310d57bdbba27aU,
  0x3d92302abcaa1f68U, 0xbd6b93523e1a6075U, 0x3e22e0e73c0dc866U, 0x3db890803d01af95U,
  0xbcd8f3d0bd56e083U, 0x3c31b2fb3c013360U, 0x3c188da0bce080f9U, 0xbd53fa493dfe4e3eU,
  0x3de22606bdb6f6a8U, 0x3e0a7119bc9901e0U, 0xbd88d7c8bd72c0d2U, 0x3dad5330bc934408U,
  0x3daf9888bddad95bU, 0xbbbc40d3bde4c0bdU, 0xbd831fad3d8aff10U, 0xbe06ba0fbd25f7d0U,
  0xbcde1f503c59efcaU, 0xbd23196e3dcc2ef6U, 0xbdda9966bd7f66a1U, 0xbc3d5b293e047b52U,
  0xbca81786bd6c8832U, 0xbdf1ba843be8cde0U, 0x3d954d813d35aee8U, 0xbdbb9ba5bdb09fa3U,
  0xbd123348be517ee4U, 0x3ca0e8c03dc18fcfU, 0xbd5a88da3e0130edU, 0x3e07f579be1605bcU,
  0xbbcea6003d6da92bU, 0x3e0e655abcabd5c8U, 0x3e1ecc2abc8dbfe0U, 0x3ddd73663ccd6358U,
  0x3d4853e33c8eb49aU, 0x3dcfe7a53d608e96U, 0x3de1af2d3dc92562U, 0xbe128d423e34bc68U,
  0xbce67e4ebdef4786U, 0x3d512568bd029e7cU, 0xbdf94ba83dc7788eU, 0x3dc012fdbd8f4edfU,
  0xbd51247ebe114149U, 0x3dc9285ebddfae2fU, 0x3dc0e33a3df01434U, 0xbd4e91b23e0324d7U,
  0xbd83e344bda374c0U, 0xbe0142c63dacd14aU, 0xbdb9fdbabe0196b2U, 0x3dd0ce8ebd029c6aU,
  0xbcffb7743df7cc42U, 0xbd896e7bbe0d4051U, 0xbe0c9fa33e1a407bU, 0x3dadf16ebc8c0e90U,
  0xbccb45b8bdb4b474U, 0xbc9261d0bd4c8204U, 0x3cfed8183dc8f596U, 0xbd0e55cebe070872U,
  0xbe179888bd33a1d8U, 0xbd1d26ecbc9111e0U, 0x3cae3b003e1672edU, 0x3e19ac053c07a7a0U,
  0x3e044ad73d382218U, 0xbe0e39f4be114790U, 0x3e000e17bc4afce0U, 0xbdbca9fd3d764ef4U,
  0x3db9a51ebe1403c0U, 0xbe0c84cc3bd37aa0U, 0x3de2e0d6bd77894cU, 0x3dac267e3d406cc4U,
  0xbd90436b3d6f22b0U, 0x3d861258be000358U, 0x3d86b6543d01f960U, 0xbdff4433bddb8f20U,
  0x3d059424bd833642U, 0x3c3e44e0be03b3b7U, 0x3da0976a3def41eeU, 0x3d6e49dc3e121911U,
  0xbdf3cca33df5b6feU, 0x3c58d6d03d84ab0aU, 0x3d399a10bdd4e000U, 0x3ded693ebc973858U,
  0x3d901f84bdb73facU, 0x3c7899c0bd9524fcU, 0x3d924d5abdcd8fe7U, 0xbc9c8bd03d50b15cU,
  0x3da6e57e3e1ba9ffU, 0xbd14a5c83e18ca09U, 0x3e15996bbcc98f80U, 0xbd93c8243dd5b3feU,
  0xbded2ce73ccee6c8U, 0x3e155d7b3bf620e0U, 0x3de21b2ebc9ba9e8U, 0xbaf741803becc320U,
  0x3d5344943e061c7bU, 0xbd112d76bc992750U, 0xbd8c2b89bc87c258U, 0xbdd632f8bd9e663cU,
  0x3d0a4af0be0e89c1U, 0x3dee6a92bd647de4U, 0x3c9e5af83d620fe0U, 0x3daa7bb63d016804U,
  0xbcaefcb8be0e5e64U, 0xbe17f1b53d20f1b0U, 0xbda4f8623c496300U, 0x3dcff4e23d34b6c8U,
  0x3ca26918bdb3fe37U, 0xbd335e7c3d1603acU, 0xbdd655fd3d5d3200U, 0xbdf75414bdfaeb9dU,
  0x3e04a5f9be0aae24U, 0x3daef7383c9209a8U, 0xbd8e07803d516404U, 0xbd9f4d9d3d9c60a4U,
  0xbd14ef6d3e0f12e9U, 0xbdf0f598bc385344U, 0xbce37a683d6c1a24U, 0x3c9f2d783d4be5d4U,
  0xbd93e3b3be0af3b3U, 0x3dd652f23d9b2606U, 0xbe037a403d292ed8U, 0x3eb676663d87e775U,
  0x3d80169e3e0c6457U, 0xbe14bcebbe018e8bU, 0xbdb6e199bdfdc639U, 0x3ccdfb683daaa594U,
  0x3d85fc5c3d21c150U, 0x3db715b33d9faebcU, 0xbd923c4cbc2c66c0U, 0xbab097933df472b6U,
  0xbdd7bd7f3e064983U, 0xbd8d84b83d013708U, 0x3db7dc1d3d5e317fU, 0x3dbc4b26bc9f5c3bU,
  0x3d85fb583dae2828U, 0x3ce7594e3e13acd8U, 0xbe097164bbe44d43U, 0x3e022e153d2cc86cU,
  0xbd01802abd1ba4fdU, 0x3d86b18cbdecf124U, 0x3db116743d47efecU, 0xbd00e940bdf7e136U,
  0xbd22df123de38a64U, 0x3dce8e16bda0d6e9U, 0xbcbbb0b83bbe0950U, 0x3e051f47bcc53917U,
  0x3df598ea3d60aca1U, 0xbe06c35cbd9392b6U, 0xbddf38d63dbc9eb0U, 0xbdc05ddeba86af17U,
  0x3b9cedfa3ddadfcaU, 0x3dab460abe039d6aU, 0xbbec83a8bdbf121cU, 0xbbe93e40be1a0623U,
  0xbd86b1313cd15304U, 0x3d4574ac3db51811U, 0xbdb6cd99bda8e967U, 0xbda95f4d3a999380U,
  0x3de09f96bbf67aefU, 0xbd88263e3d33c9a4U, 0x3aa035a8bdcc8ec4U, 0x3dcb6b6ebdde180fU,
  0xbe0385643db60c9fU, 0x3dc54a03bdbfa51aU, 0x3dc42d253d9ba958U, 0xbda52f183e197a59U,
  0xbd8a88efbe06968eU, 0x3d45043dbd053852U, 0xbe0ec877be07867fU, 0x3da229103e18a039U,
  0x3cc256d03dfc90f5U, 0xbd602b743dda5b86U, 0x3caecf30be0662c7U, 0xbd8649543deaeb0fU,
  0xbd955a693dfef5abU, 0x3d7c33ecbc7ed990U, 0x3d3ac37b3e0f9c71U, 0xbbf46b65bd4c1ed0U,
  0x3d631d64bdbe2e7bU, 0xbd085f503bcf2a40U, 0x3a19d900bca2e138U, 0x3b66f780bdde08aeU,
  0x3dc55deabd391ab8U, 0xbe172ad9be1594dbU, 0xbda425febc19b270U, 0xbe024a5c3d24d4e8U,
  0xbd3d7ca0bd2d5de2U, 0xbc009be03c354370U, 0x3e0f42293cac61d8U, 0xbd8a8b323c3f28d0U,
  0x3ded17763d5b4738U, 0x3dfc37b6bdb404d6U, 0xbdc84a1a3e0dc615U, 0xbd42c8b0bd861cf3U,
  0xbde542f6bd2dc26eU, 0xbd944654bddb6b88U, 0xbdf920e43cbb4468U, 0x3e044ce53d8b02f4U,
  0xbd9a926b3dde0db6U, 0x3dcb6baa3e0b131dU, 0xbdadb642bd7a7fccU, 0xbe03f116bdb43a6bU,
  0xbd1d28863e11fa51U, 0x3d9caa48be18b200U, 0x3c86f1183d0062e8U, 0xbe02186cbd670212U,
  0xbcbb0a903d9c355cU, 0xbcd9b5903dc49832U, 0x3d95e5c4bdac31bfU, 0xbd32f7ae3d96339cU,
  0x3d0fabd0bdaf8cc5U, 0xbc33f740bdd106d4U, 0xbe183965bdae511dU, 0xbdde133abb1b7600U,
  0xbe0515f73e041b91U, 0xbd8d72633c811ca8U, 0xbdf2c1253db1d9f8U, 0xbdca2bb1be0d0bffU,
  0x3e12df9b3dc3ac5aU, 0x3ce57470be073c73U, 0xbe03d0ffbd2f082cU, 0xbdc4f2a2bbaedf20U,
  0xbe0ffd613c2f1510U, 0x3dc134e23e183a99U, 0xbdfff410bd11fdeeU, 0x3d8e407e3d000158U,
  0x3d5944583c20c740U, 0x3dc4a1663c7f0cd0U, 0xbdb7e794bde9a7aaU, 0x3dbe8ee03de29e8aU,
  0xbdba63d53ce576e8U, 0x3dfa336ebd10b8d8U, 0xbdedde2f3d47a00cU, 0x3daf533a3e1880f9U,
  0xbdffb2f1bd7f76e4U, 0xbdc4af7c3d2914acU, 0xbc332d503d1d5f30U, 0x3ce157a0bdbf936bU,
  0xbd872ed53e0e2d93U, 0x3e0365313d838efeU, 0x3e06474d3dcdc456U, 0x3d6744d03db61a00U,
  0x3e085a653da1fc70U, 0x3d8a80083d6e6dc8U, 0xbd7eb6e0bcce030eU, 0xbdac39fa3d8b3772U,
  0x3de232cebe094102U, 0xbda71511bdd4f760U, 0x3d6766583d4fa1dcU, 0x3e93d2dcbd927552U,
  0x3dc5364d3d96c324U, 0x3db6f2843e1ad219U, 0x3d9657babde56260U, 0xbe13057ebc7716e0U,
  0xbd83673a3dbc1e06U, 0x3b322f52bd0e6446U, 0x3d547f7e3d9eb9ceU, 0x3d74f28b3d9ddc20U,
  0xbd0400563dc1015eU, 0xbe07ab713e0b2056U, 0x3e87d4e9bde69f9dU, 0xbda2a6f43ba80732U,
  0x3d72d380bdf03e8eU, 0x3dc44d733e1b9333U, 0xbc3212603cd994edU, 0xbdb23b1c3e102fa9U,
  0x3e03ea1bbe05252dU, 0xbda5503d3e00b95fU, 0x3e10ccb5bc92ea88U, 0x3c5394303c77a980U,
  0x3d8568aa3babe91fU, 0xbcd7ee93bdcc1876U, 0xbc5e05803d96422dU, 0xbdfb352f3dc1c6ccU,
  0x3b153e00be05b8baU, 0x3da409b03e1c0951U, 0xbbb5ed123e1923e0U, 0xbd0839d83e18718bU,
  0xbdfafcf23e05d32bU, 0xbc9141a03d361cb0U, 0x3dc6620c3d84e5c0U, 0xbe19e334bc83abceU,
  0xbd1cc2e3bc395ee5U, 0xbd93de973d85a8c6U, 0xbdcac302bd8d78abU, 0xbe0c9109bdf19285U,
  0xbdab1b40bdb860c9U, 0xbe1a7b253dd7a77aU, 0xbd101d4fbd113184U, 0x3c3509703d893111U,
  0xbbb71c1d3e00c41eU, 0x3db156b33d56d082U, 0xbe0ba75cbde867cfU, 0xbd4759223b1d4073U,
  0x3dceae883d2a0b08U, 0xbdada54fbda64fb6U, 0xbcb82780be0a88daU, 0x3cf060e93e1129d5U,
  0xbd644f8cbe23cc57U, 0x3daae9a63cc6d478U, 0x3d9c8a183df8907aU, 0x3df3df963da9f799U,
  0xbd180b473d2f8ed3U, 0xbcab93a13cf24870U, 0xbdd1747e3dfee76fU, 0x3dd770583d94c418U,
  0xbddd2f24bd9f977dU, 0xbd0879ffbe094f46U, 0x3dd15a2e3e261cbbU, 0xbd98b642bb4a25c0U,
  0xbdfeafd5bdca8bccU, 0xbd8631ca3dca6dc2U, 0xbe1ab1a2bcc24d78U, 0xbe599b333d2b11deU,
  0xbe107d24bd140eb8U, 0x3d98512abdd88a68U, 0x3dbd07da3df84e77U, 0x3c6aef40bdc15874U,
  0x3de94646be089a50U, 0x3db6239dbdbb7bbaU, 0x3d5db8a7bd0984fcU, 0x3d3f6805bdb34ed9U,
  0x3e145ef43d417580U, 0xbe194bb5bd84ebabU, 0xbe1af6a9be214182U, 0xbd905a363db17578U,
  0x3dcb0d8e3de950e3U, 0xbd504078bd409b51U, 0x3d6f8954bceff397U, 0x3df72e1d3e03c10dU,
  0x3c09e430bd8e4145U, 0xbc2cc9103d88dc24U, 0xbddcb1ca3db5d404U, 0x3cbcd638bd8df844U,
  0x3e022ab7bccd515fU, 0x3dfb5117bdcffb16U, 0x3e17d32f3dce24edU, 0x3da10500bc8187deU,
  0xbdd9b098bda82ebaU, 0x3dcd3d8ebda2c09eU, 0xbde9763a3d7fa9a8U, 0xbe30067fbd40e5dbU,
  0x3c5ad68c3cd7c6e8U, 0xbdb8fde7bd8a61a7U, 0xbc4647a53e02d09bU, 0xbd256f423dd45e6fU,
  0xbc48955a3e1694e1U, 0xbdd62634bcdec832U, 0x3d83c0ecbe0cc966U, 0xbe19acbdbdfbcbf4U,
  0x3d83a94e3cf7eac1U, 0x3dc41aa93e11e84bU, 0x3c3cc8263d1621e8U, 0xbadb3f803dd5f8f9U,
  0x3c723401bd5d64cdU, 0xbca6ab473d90ffc5U, 0xbdf967babd86f8abU, 0x3da452e43dcbceceU,
  0x3d0a867c3cfe0ae0U, 0x3df832043dee4aa6U, 0xbe0a47a23df1d16aU, 0x3dfa888d3da85de4U,
  0xbd8164b33d82a978U, 0xbcc43ad0bddb7fdaU, 0xbd8619813c366025U, 0xbd39c57e3dcc5b7dU,
  0xbcef16a33de60374U, 0x3ceb60ddbdc1e256U, 0x3d7c2f41be03546aU, 0x3d19bf6f3db4b36cU,
  0xbdfa8e483e1a36c1U, 0x3de902aebd378360U, 0x3d900d923e19ec4fU, 0xbd148648bdef5bacU,
  0xbdf11fe9bd1302baU, 0x3af5d9003da5c9eeU, 0x3dbbc0463d087510U, 0x3ddebfe6bd8982a7U,
  0xbe0f49d4bd0e3874U, 0x3e0b070f3d344b04U, 0xbe115e58bdc5af08U, 0x3e0ec591bdf1c764U,
  0x3e097e69bd76c8a2U, 0x3d981f68bd6230aeU, 0x3d7ee654be187b26U, 0x3d68c5d8be0efa00U,
  0xbe1b85e03c9129f8U, 0x3d4280ecbdbd4f32U, 0x3ddf32f2bd72b836U, 0xbd4d69cebdb4fb42U,
  0x3e00ff913d3836ecU, 0xbc4987503cdb1460U, 0x3d87524a3cbc6a10U, 0x3e183e853de82c1eU,
  0x3d3878983dbeec2eU, 0xbbbb6b60bd40a476U, 0x3da04ba2bdbcb4aaU, 0xbdc5befa3dfc6c6aU,
  0x3d4666d43daa6cbaU, 0x3d7e5a903dd4e2a6U, 0xbe0ec6f9bdf0ec6eU, 0x3d3a4edcbd37cc8eU,
  0xbddd9bca3cd46728U, 0x3e130c85be163911U, 0x3cfb27f83e18565dU, 0xbd5c8f263df79f92U,
  0x3df8db723d578cf4U, 0xbe0446fe3bc24fa0U, 0x3d4a557cbdc97646U, 0x3c2a85e0bd82af70U,
  0x3ca367683c3ebfd0U, 0xbad37e80bdaf5155U, 0xbe147993bd8b916dU, 0xbd8e409fbd6e134aU,
  0x3d929c8ebe1249dcU, 0xbe18de04bccc37c8U, 0x3d590e603e0d3c37U, 0xbe065e21bd74c6ecU,
  0xbd0883683e0cc2efU, 0xbda31c1cbe112700U, 0x3e17eee3be0afdc2U, 0x3d96d3223e0a2047U,
  0x3d323f0c3ba11300U, 0x3dd33a123d09cb68U, 0xbded882f3dcbdc8eU, 0xbdfb61b9bdd81077U,
  0x3df2101ebdbcd07eU, 0x3e1c7cb5bd871113U, 0xbdc740633da17562U, 0xbdb5ec97bdac25ebU,
  0xbe014c6fbe14a251U, 0x3d3caabcb9ffe000U, 0xbd9876cdbdfc425eU, 0xbdd710bebd9552a0U,
  0xbdc90d903df0c50eU, 0xbd71770b3d0a77daU, 0x3dcc58123db8bfe9U, 0xbcc038e03de176b2U,
  0xbda794f0bdb305cdU, 0xbcd52d583d5e6f9cU, 0xba1c74b1bd9f0fa6U, 0x3c768db1bb7488ffU,
  0xbdc481b33dc2af6cU, 0x3c576df03dd9db3aU, 0xbbec8f003cb4023dU, 0xbe109d3cbe14a863U,
  0xbb242ec03e0a9775U, 0xbc3dd9a9bc3bcb10U, 0xbde09134bdf9d481U, 0xbc453adcbdfdf5ceU,
  0x3d460d40bdb3dc84U, 0x3e03022d3dbbe67cU, 0x3de59ff8be0de30fU, 0xbe0c89443c8c8073U,
  0xbd71d828be103cadU, 0x3d256ee03e04021fU, 0xbd32d6c4bd631e85U, 0xbcd351e23c216250U,
  0x3d113328bd4ec7b9U, 0xbe0fc286bcdca6d8U, 0x3d246ec03d8c1190U, 0x3daf88f6bd1482baU,
  0xbd6981313d8de2bdU, 0xbd21c3413e0d110fU, 0xbc87fa78bd3ca7f7U, 0x3d80034bbd8aa9f5U,
  0x3d49881c3e03f370U, 0x3d5a5148bdd017f2U, 0x3d9d35a0be1da659U, 0xbdf3ffdcbc3eebd5U,
  0x3e12cddcbde030d4U, 0xbdbaa07abda3dfe0U, 0x3c9057413dc34c06U, 0x3ddde6923cb829deU,
  0x3db323b3bd94692cU, 0xbc9d2e78bdb4b5d7U, 0xbe0f38db3d9b7a33U, 0x3dbd4794be0b4c38U,
  0x3e188e8f3dfe3d16U, 0x3dff5ca73d24a028U, 0x3d5cb4f4bd5e0142U, 0xbe164610bdb7af7aU,
  0x3d1df7c5be0b6898U, 0x3db133fd3e085325U, 0x3d1854bc3de4ec21U, 0x3e161651be1bb3e8U,
  0xbe12d1e9bdfc2ca1U, 0x3d9ba5223e177361U, 0xbd8ece593e0d59dbU, 0xbe096ee8bca68a98U,
  0xbd62c6363da46888U, 0x3e0ad4d3be0441e7U, 0xbd5a54763d059019U, 0x3d0f1ef0bd2c0437U,
  0x3def18863a945ac1U, 0xbde4f1b43dd2b12eU, 0x3d983158bd945d68U, 0xbd7f0e2dbdf95e16U,
  0xbdb4f57f3cd45640U, 0xbd474cf63e0b23c5U, 0x3ddbf60abd8c258bU, 0x3ddc53de3d5c4b08U,
  0xbbaa09003d2b5ac4U, 0x3bca9d803d1b96f8U, 0x3de510b23d886054U, 0x3cf819583d94768eU,
  0x3d344400bd72ae7cU, 0x3dab5106bc7ec9c0U, 0xbdc71dd4be1a182fU, 0x3db3a20ebd9eae6fU,
  0x3d583f28bddaa3beU, 0xbe04ea693dd1b9a2U, 0xbc564b90bd803499U, 0x3d801f78bdbe6b64U,
  0x3d8390ec3e0fff33U, 0xbd9639c63ca20ce0U, 0xbba506a0bdb5f8eaU, 0xbe0922323d87b708U,
  0xbd87b1d8bcfe2eecU, 0x3c95b8b0bd4c982eU, 0xbcf875fc3d054840U, 0x3c07be20bd94c34aU,
  0xbdc9ea3e3dc84a32U, 0xbbc881603d90e24aU, 0x3da3c7e6bdb51741U, 0xbd8da069bd608c18U,
  0xbda5b4be3d27396cU, 0xbdf4381cbe17d81aU, 0x3d89d09e3e02bad3U, 0x3df2ea7abbea9d80U,
  0xbb55f640bdf8e13eU, 0x3dcacaf63d136268U, 0xbe0420b8bdc50408U, 0x3e0073233d99f96cU,
  0xbe1b4a7ebd877456U, 0x3de2748a3d80dd58U, 0xbb6138003d81382cU, 0xbc81d410bd02d3aeU,
  0xbdc6fc52bc16fed0U, 0xbda806973dcbdbdeU, 0x3cbbb418bdf4b7f6U, 0xbde80dee3e17ede1U,
  0xbe073a983dc84deaU, 0x3dfd0a9ebdf27eafU, 0x3d0438d83d87bf64U, 0x3d2b30703a129e00U,
  0x3df443923d65a24cU, 0x3dd5291e3e1a2bffU, 0xbe16d31bbd0c26f0U, 0x3d685510bc992368U,
  0x3cc328183e0ef0d7U, 0xbcca4f683dc452f0U, 0xbd24ebfcbd6a6772U, 0x3d00d4343d32c954U,
  0xbd5d274abba40000U, 0xbd341860bd3a280cU, 0xbd53ec72bcc3f468U, 0x3c901c78bd011804U,
  0x3d9f0efa3b1fbf80U, 0xbd03ff98bdb3628aU, 0xbdf3c7fcbdc9af04U, 0xbce9b5dc3bedba20U,
  0x3dfb27983d940094U, 0x3dec16fa3d6783fbU, 0xbd76c1483e346f73U, 0x3df88fbe3da561d8U,
  0x3d7ac2f8bddb7b8eU, 0x3ce0d7683dfe5d3dU, 0xbca3e177be0609daU, 0xbec16bc33d28e611U,
  0x3dcf7a10bd1f47c6U, 0x3df6a8b2bdd4b4ecU, 0xbc3b8e00bdeb634bU, 0x3d61277c3df8818dU,
  0x3c3d29d03da26ea2U, 0x3c165bb3bde919b0U, 0xbd7f27543ddf7abaU, 0xbe0593f93e13ebdfU,
  0x3d7753853d05fd64U, 0xbdd92444bdb35baeU, 0xbe434c99bbfd20b2U, 0x3c341430bc8b3582U,
  0xbda4aa3f3cae5f1aU, 0xbd68f2fa3e129404U, 0xbdffab76bddd31d3U, 0xbc40ab793a96b700U,
  0x3e093c03bd9aa834U, 0xbdd297be3d632cc0U, 0x3ddefb6a3dbb9356U, 0xbd911fdf3c6bae50U,
  0xbe13dff03d200bb4U, 0x3d5b2c473ceaf310U, 0x3dc4cb9ebde13de9U, 0xbdb76fabbcd751fdU,
  0x3c3c2bd03df7fd31U, 0x3dcc6bb6bd7adca6U, 0xbd0bb6973d52919cU, 0xbda2f416bdea24dbU,
  0x3dbb42ff3be321a0U, 0xbddce3f2be14b563U, 0xbe15fda53d56ccc8U, 0x3d8d7b0abda0c085U,
  0xbe1576c93e9ef78fU, 0x3d4d5c983d96cde1U, 0x3bbda920bd57e451U, 0x3d95db08bd5e7edeU,
  0xbdcffd673d6d8bd8U, 0xbcbb1de23dc7f4eaU, 0xbe006b88bdaf847cU, 0xbda49b2b3df0f83dU,
  0xbda5c36a3dad193fU, 0xbe074e36bd6c3a7eU, 0x3e0306bd3cb1f455U, 0x3d1d4c50be3fa3c3U,
  0x3e0d1f7ebde11d52U, 0x3d956fd0bd498310U, 0xbe09da62bc973830U, 0x3cfb8d6bbe04aa74U,
  0xbd7c5f22bd875e4fU, 0x3dd6f95a3d2d8154U, 0xbe0d60523da0b310U, 0xbe01d128bcc37615U,
  0xbd2f00bf3e0548d7U, 0xbcd89757bca4d7f8U, 0x3b2181b73c42a575U, 0x3de791a2bde7caccU,
  0x3e0d72fcbd7a22d9U, 0xbdf065ddbd83a0b6U, 0xbdfe0e433cb61a25U, 0xbd39a8063c317a30U,
  0xbde929523d8335dfU, 0xbdce8bbebe0fe313U, 0xbc8c5922bdc7b6f5U, 0x3dad2bc4be10dc51U,
  0xbd0c02e43e161641U, 0x3d270b0cbd918775U, 0x3d9d3078bd1988b4U, 0xbe11706bbda57a06U,
  0xbe0fc145bc6abbf0U, 0xbd03e7fc3d90e160U, 0x3a0ca1a8bd07e6e8U, 0xbe20ec203d8ba796U,
  0xbd01b5bcbc5c0590U, 0x3d16eb143dacad7bU, 0x3debc2dbbdf9cc05U, 0x3de9d34ebd2731c2U,
  0xbe1bd23d3d97cde5U, 0x3bf13c8cbdf37765U, 0x3d93fd66bdf5783fU, 0x3dc9ce2ebd4eef4eU,
  0x3de6fe8ebd87ecc1U, 0xbdf339b53e16ded7U, 0x3d69241cbd2af79aU, 0xbe09c338be151f28U,
  0x3defecdfbd9199e9U, 0x3db1a0fcbce8d8ccU, 0x3c082fc0ba081d6eU, 0x3d3277cfbe0ab31cU,
  0xbd539608bab89530U, 0x3d5408d0bd45599cU, 0x3d9ca6873dc6c095U, 0x3da4ac62bd6c8d76U,
  0x3bd103cd3d506c8cU, 0xbe1680303e12a3edU, 0xbd079e0e3dce49c2U, 0x3c51b410be1c7688U,
  0xbe0aa8fcbda985ceU, 0xbdfba2fbbdbbb735U, 0xbc955c88bd99c262U, 0xbe00b4ac3de79ffeU,
  0x3e165c6b3e1036bdU, 0xbd4e15693e19027dU, 0x3d2b846f3ddededaU, 0xbe03f088bd2025e3U,
  0x3d1182fcbe0af80cU, 0x3dbae4a83d059d84U, 0xbdb6c76a3d5e9a6aU, 0x3d9aba60bdf645a5U,
  0x3dbfdfed3d4b2b2cU, 0x3e1173e6bda9e68aU, 0x3d1d37603c9ceaf0U, 0xbdcfe902bbbaeca0U,
  0x3df76406bca8e58bU, 0xbb3663803d21d180U, 0x3de0532e3dfc8c75U, 0x3c6b2350bde5846dU,
  0xbb5ae90f3d2d14f8U, 0x3d936e58bd532f00U, 0xbdd3d208bd8b7788U, 0x3d52acf3bd377ddeU,
  0x3d0dd8bebdfb223aU, 0x3db77da8bd9750afU, 0xbdbf4b99bde21dd3U, 0x3daf22f2bd823c29U,
  0xbdd1a38ebe0ff13bU, 0x3d697de8bd94837bU, 0xbdbba02c3e0945a9U, 0x3ef9601a3d84d8afU,
  0x3d9d0ff73d811956U, 0xbc991528bb8adea0U, 0x3dd4287abd026347U, 0xbce51c203df58a69U,
  0x3e0de451bdb80088U, 0xbd8365093e10daddU, 0x3dda7912bdb692deU, 0x3c2619b13dccc30aU,
  0xbe010b733d138ac0U, 0x3e14b9dfbc99c8a6U, 0x3ea498e9bd97cebbU, 0x3dfab296bd4355ebU,
  0xbd808ff5be16b0ddU, 0x3e07e7663cbd5fc8U, 0xbdb01537bd8d398dU, 0x3d3d7d313c1bfd40U,
  0x3c6632203db62668U, 0x3d68375c3df499a2U, 0x3cdcf250bd7db430U, 0xbdd2a9e2bd63fce0U,
  0x3bdcd1863d8c472aU, 0xbe22046dbcc23e68U, 0x3e11f56fbde349a9U, 0x3d4489a53df8c1f6U,
  0xbd4f8c6cbe0bba4dU, 0x3da4c4383dbcd524U, 0x3db32710bdd0c1dcU, 0xbb28201a3e078fa3U,
  0x3cc23fb4bd282024U, 0x3decf02a3d2cebc0U, 0xbcf971c9bd9f554aU, 0x3de98b3a3d97402dU,
  0xbdb0d12bbe965a8cU, 0x3939dc003da151ccU, 0xbe0ccb6c3cad824aU, 0xbe1a12653dae0186U,
  0x3d5d9d983cbefb9fU, 0xbde5cd7b3da96f82U, 0xbde3fbc33e018ff1U, 0x3d156abc3dbaf268U,
  0x3e137f573e0acd30U, 0xbb8017863dad3156U, 0xbd829a383e0a98cfU, 0x3c77ecc03c233f3bU,
  0xba9c0a1fbdcfe92dU, 0xbe218ef13df71266U, 0xbd3c80683d9502d2U, 0xbcb1af423d21d490U,
  0xbc8244f8bd24cbb3U, 0x3d45d2f0bddff353U, 0x3d1be7603e1977b2U, 0xbbd50c603dc7732eU,
  0xbe4a681f3de243a9U, 0xbd6d50d93da0fc04U, 0x3dafe16a39c8265cU, 0xbd4c7a34bc7be830U,
  0xbd59d28c3bd992d8U, 0x3dac89ba3dcf9386U, 0xbd761dc8bdad5980U, 0xbdfd890d3df31792U,
  0x3d50ea0cb994c37bU, 0xbd05d2863d89cb3cU, 0x3dc0fb033dbaf4d4U, 0x3ed282473d62e817U,
  0x3cfad2583d146bb8U, 0x38bdb000bd929c23U, 0xbd5dea7c3d924fc2U, 0xbbe9dec03d8467feU,
  0x3d7af7403dbf9180U, 0xbda70195bd1cd858U, 0x3cba9d4dbd9dfd2cU, 0x3e1179fdbda3ffc7U,
  0x3dfc0a18bd183daeU, 0xbd7e1f763d0c3556U, 0x3d10653e3d31e6f5U, 0x3db7a0723dc0552bU,
  0xbd275bc23e00b925U, 0xbd6e17423c43dcb2U, 0x3d8a16503db83bccU, 0x3de9a0883e0e4d7bU,
  0x3c8caf183de0310dU, 0xbd868400be110ac4U, 0xbd1132163df47f5eU, 0xbd645cac3d8e08f4U,
  0x3d5724b13c11d8acU, 0xbcb5120a3e12562dU, 0xbd8fa3f4bd647229U, 0x3cd915d33b881846U,
  0x3e05e42b3ac07249U, 0x3d83546abcb0f390U, 0x3cb2608c3e102f98U, 0xbd9d451b3cf8d1c9U,
  0x3d664dffbcabc1c8U, 0x3dce9cf2bd4c922cU, 0x3e06f3bdbda60c9eU, 0xbe00cb60bd794989U,
  0x3a0f0cfa3c43c81aU, 0xbe037af7bd65976bU, 0x3d95c3483d44c8e8U, 0x3dc2d90cbda17b50U,
  0xbcdc78b0be0d6e6bU, 0x3e163ba03d087c5cU, 0x3d4fb29a3e0f8c3bU, 0xbd7a40fe3d85d45fU,
  0xbc339c2f3e1549b5U, 0x3df6a456bda40585U, 0x3d0846743cb032b5U, 0xbe186786bd19d391U,
  0x3d22bd0c3c4d6910U, 0xbdaec4cd3d6a3b04U, 0xbda2873abdcdde04U, 0x3da3a83cbd4e8a88U,
  0xbdbeffc2bc509916U, 0xbd1a3d783bbe25c0U, 0x3cc5dbb0bdcc2a12U, 0xbe040d6e3e1c9130U,
  0x3e0e2732bdee5404U, 0x3dfd65f7bd9a9e0dU, 0x3c58d596bdc79829U, 0x3d7538d93db8a6f2U,
  0xbe150a9d3a8bc880U, 0xbc8d7828bd3b89bcU, 0xbe1660473d659a1cU, 0x3d3d579cbe028703U,
  0xbc37ff40bcf36448U, 0x3da00d883d9489b6U, 0x3d21b980bd8b8f26U, 0xbd411b903e0a47b3U,
  0x3e1328ad3db6fec8U, 0x3d2fe4e4bcacbb18U, 0xbd72e55ebe160ad5U, 0x3c9b71d03dc58e86U,
  0x3d3de5143cc9ca38U, 0x3e0a7f273e12950bU, 0xbdcb3ffc3dc0193eU, 0x3de9f6b63de9f656U,
  0xbaf39380bd7f88b0U, 0x3da1eea63d424b88U, 0xbd34a7f03d0ec6ccU, 0xbdbb7ecebd1d04c8U,
  0xbd23c91a3d6a20ccU, 0x3d86f5723d3afb8cU, 0x3de12a3e3cc24b90U, 0x3df1c41a3dd1ae56U,
  0xbcda1c30be1b441cU, 0x3c4ec0e0bc954db0U, 0x3d1eb8f03d5c93b4U, 0x3d1192ecbd9bc53cU,
  0xbe149ad1bcdfb9f8U, 0x3e04a833bd98bfd9U, 0x3e1b1cabbcbb6c78U, 0xbd889ad53c492b20U,
  0xbe1705493dbc3e58U, 0xbcb7d0503d954fbcU, 0xbe04fa2bbe058bbeU, 0x3e09faef3c8ea8a8U,
  0x3dcf28cabcb92ed0U, 0xbd9078463dc6e29eU, 0xbe0b676ebe0ae188U, 0xbc87e9903df377e6U,
  0xbd431298bd7fe53cU, 0x3da746e2be0e982aU, 0xbd80fb473deaabe2U, 0xbe0e9cc43c86e7c0U,
  0xbd65a7bc3dd4ee0eU, 0xbdb267d9bdc86506U, 0x3e11f867bbe0a700U, 0x3d259d44be1227b8U,
  0xbdd4a976bdf58a8aU, 0xbd222324bc740380U, 0x3d8f00aebe02776dU, 0x3df7f852bd31a198U,
  0xbe056b3f3e03cae1U, 0x3d874916bd7baf0aU, 0x3d326df0bdc142aeU, 0x3dbaa934bd25d070U,
  0x3d410f843c251bd0U, 0x3c0da180bdfbd1d4U, 0xbdd30888bdc8163dU, 0xbd76c2f8bcd46f20U,
  0x3d92310c3dc9a2b2U, 0x3d0cf480be19dfa0U, 0xbdd7d2cebdc2f66cU, 0x3d286220bddfdc74U,
  0x3be503603dd62521U, 0xbd21741dbdb770e6U, 0xbdadeca53dcef756U, 0x3cbf06d83cc500c8U,
  0xbe0e2af1bc8f8461U, 0xbd5a31acbd0d436fU, 0xbcb97ff9be197d68U, 0x3e8c9713be01fc5fU,
  0xb9e6d165bc2515b0U, 0xbca9f4103e120929U, 0xbd84569b3cba15d0U, 0x3e1236673e02c29bU,
  0x3d0a0e203dae73e8U, 0xbd93f2123d410ef8U, 0x3d15ef32bc10c800U, 0x3dafd9133da2b936U,
  0x3dae2cd73dead4aaU, 0xbd8ed7753dc6daf0U, 0x3e862a863e1c6156U, 0xbdb491e9bdb7f535U,
  0xbc062a703c21babbU, 0x3bcc688c3e07239dU, 0x3d61c9f43d8525cdU, 0xbcdc99f1bc5b8960U,
  0xbd35c1e63c6474d1U, 0xbd8eb8263d29d5ccU, 0xbdb0663dbd352552U, 0x3cfed3203d8c5a3aU,
  0x3ddeafe03dbff6c9U, 0xbda336ccbd3e924cU, 0x3de4c2ce3d077c8aU, 0xbd3ea52c3d8ca6c3U,
  0x3dab34303de4a293U, 0xbdfa71283dad1934U, 0x3d843ad9badc5d99U, 0x3dcb5083be149e46U,
  0xbe087628bb8afa40U, 0x3d2f0ee8be0f5ab5U, 0xbd1ee7dcbd04b8aeU, 0xbd2274aa3e05fe83U,
  0x3c19dc95be7ed56dU, 0xbe138b53bdf143cbU, 0x3dadd322bdbbc3caU, 0x3c15d3f03bef68a0U,
  0xbc122c603ce0f97dU, 0xbded056cbca56808U, 0xbce0dc523de4c83eU, 0x3e0bce15be180932U,
  0x3d74e2533e05b858U, 0x3da7da933d29d101U, 0xbcd341e83dc19909U, 0x3c4c0f803e08ed20U,
  0x3dbf59a2bd8650caU, 0x3dcc4ac03d81afe4U, 0xbd6428da3deee76aU, 0x3d2c133abc981bd8U,
  0xbd8ac004be187c02U, 0xbd264d82bd8e56bfU, 0xbdd30ffabdf90b08U, 0xbd8a5387be122d2dU,
  0xbdcde328bb449483U, 0xbde8ac07bdc599f2U, 0x3dc121f5bd8a2325U, 0x3d138d02bd02b392U,
  0x3dfc9696bcb4f9b8U, 0xbddbc7c43debc626U, 0x3deba5eabe04da6cU, 0x3d5759243cbfc638U,
  0xbe166a8ebc5de530U, 0xbccdd310be195dd4U, 0x3db3e99abd93df6eU, 0x3d6109783de92966U,
  0xbdfb9bdcbdfeaaeaU, 0x3e0fd15dbdd696dcU, 0x3e0a23edb8daa000U, 0x3cdf77e8bd796db8U,
  0xbda9e304bdbb7298U, 0xbcef93b4bccfe4b0U, 0xbd80bc60bde8b0a6U, 0x3da4ee903dc47c54U,
  0xbc1588503c9c3fb8U, 0xbdce8fd13d649ab8U, 0xbdff330d3d9514f2U, 0x3de2d0aebd37ab38U,
  0x3ba3ee803d675c64U, 0x3e14c893be0289f3U, 0xbd0bd2dab9994000U, 0xbcca13403dc8b22eU,
  0x3e024be93d87b86cU, 0xbe119e08bdd440acU, 0x3dc63fc83dd32c82U, 0x3d6fd5b03dc0da5aU,
  0x3d937706bd0ebac6U, 0xbe1c1bc8be0cfa09U, 0xbad461003de1e73eU, 0x3da23d263d897af6U,
  0x3df95a6abdca902eU, 0x3d9cf3a638cd6000U, 0xbdb85347be015b10U, 0x3d2ff3f03d1a0af4U,
  0x3c03a3f0bdcfc33fU, 0x3bcbb2003d2dbd38U, 0x3e0fb2573d2ea2c8U, 0xbc86f2883de5c02eU,
  0xbbb7a4203df2718aU, 0xbdbf3a653e067ae7U, 0x3d88909cbd5d899cU, 0x3de0cf6e3a439100U,
  0x3da617e03cebfd70U, 0x3d053b883e19ad4dU, 0x3cd1fd483de5c3deU, 0x3e052603bd3391a6U,
  0xbdb875dc3d436e1cU, 0x3da62a9cbe12101aU, 0xbd40e722bcedaf8cU, 0x3d1cc864bcca93e8U,
  0xbc5b81903df7d76aU, 0x3c84c7e0bcdc9d48U, 0x3d3b0f103dc945c2U, 0xbe07efe9bda2db7cU,
  0xbe18ba7dbcb3e778U, 0x3c75ad903d47ec2cU, 0x3d573484bdea7ae4U, 0x3e1bd0953e0c47e5U,
  0xbe041c38bdbbb96cU, 0xbd6a24203d3a54e0U, 0xbda782883d858f12U, 0x3dfbb31ebdbe905eU,
  0x3d97f2e4bda4d5c3U, 0xbde545fc3e0cd32fU, 0xbce1d5b03da05c26U, 0xbe1bf782bd4b5706U,
  0x3dcca3723d9185daU, 0x3b9e0ae03de9e75eU, 0xbdb94bd8be0d9fd1U, 0xbdc7364dbdfb17e0U,
  0xbdd1d1863d067558U, 0x3ded6932be0f97d2U, 0x3e1cb4f93df2f67aU, 0x3d6064903d371c9cU,
  0xbc90c3303dac9b36U, 0xbd94dfe6bbc77580U, 0xbdfa6a0a3de96a8eU, 0x3e00f155be0f7e01U,
  0x3dcefe6abda09e5cU, 0x3e06dfbbbd324324U, 0xbda76efebdf7a45bU, 0xbcbc5a70bd591740U,
  0xbdda65e0be089895U, 0xbcc5a3f83d133f6cU, 0x3e16847d3e0fa307U, 0xbd0d4d743e0de777U,
  0x3dfdef96bd1ed6e8U, 0x3e1678f9bd2806f4U, 0x3dbc49fabdd48e76U, 0x3e11be47bdee24a5U,
  0x3bf0a500bd309574U, 0x3ba6aa803e0fc799U, 0x3da8ad6c3e136cedU, 0x3c8131a03df50412U,
  0xbd4812cc3da9c138U, 0xbc3eb940bd18813cU, 0xbd93fc62bdc237b5U, 0xbd5cf316bdaddde4U,
  0x3db6ca9e3d2f983cU, 0xbdb6a96ebdc233faU, 0x3d603eac3dad50a4U, 0xbc1c47303dfddf62U,
  0xbd99a86fbd528048U, 0x3d9d146a3d4e22a8U, 0xbd03f20cbd8e56b0U, 0x3d83291cbc3c4f50U,
  0xbbaa6ee03d25c02cU, 0xbd1fb0743de17ae2U, 0x3dd658e23d069918U, 0x3d94b608bdaf413dU,
  0x3dea661a3db94a86U, 0x3d6702a43d3f0ef4U, 0xbda1efcc3de1422eU, 0xbc999050bba51fc0U,
  0xbdc0b1b4bd38d850U, 0xbe06dbfd3e0d76c5U, 0x3dafad7abddd9b4cU, 0xbddde69ebd9319ecU,
  0xbdb70fedbe046da3U, 0x3e17b1efbe045358U, 0xbd8847f3bdca96c8U, 0x3de84b42bd669c88U,
  0xbdfc911e3e002917U, 0x3e06d223bdd2458cU, 0x3dad76be3e07029bU, 0xbe1c55513d5eb03cU,
  0x3d9d8df7bdb5dd0eU, 0x3db2bb48bd8c67a5U, 0xbe0f58a9bd41ef4fU, 0xbd5d41a8bdc1fdb4U,
  0x3de2b95a3e1a7e44U, 0xbe135dc33d3df6b0U, 0x3d7f8b3e3dea03f2U, 0x3eb1da14bd94d81dU,
  0xbdbdeeb7be079b8fU, 0x3def5a4a3ba35d60U, 0x3e026891bda89f7bU, 0x3b2ed8c03bc585c0U,
  0xbd0d14a83da44bd4U, 0x3d9371cf3db036beU, 0x3c8eece83d4b1b0cU, 0xbb9d7f2cbddbee10U,
  0x3b1db8943dd9f676U, 0x3c945b583c4934b5U, 0x3e9110203dd8461fU, 0xbe15dd513dbf27dcU,
  0x3e096aa93e0ce2caU, 0x3ce55526bdf4287cU, 0xbd2b3ec0be0b8014U, 0xbde9a0753de4cd4aU,
  0xbe0145f0bdfa5c96U, 0xbd625270be012fd6U, 0xbd28ecac3d34e2c4U, 0xbdc460343e153033U,
  0xbdb30387bd22349dU, 0x3da9b9e63d155ae4U, 0x3de004323da2490eU, 0xbdd1c20d3db832cdU,
  0x3dc0a1223dc8430fU, 0xbdff70a2bc07de20U, 0x3d05eaee3dbd0105U, 0x3d66d5153dac6324U,
  0xbd1b6f563c4f8d90U, 0x3d9e2e4cbd8f696fU, 0xbd405971bdf168feU, 0x3ddaf622bd57e7dfU,
  0x3e25d5643a9128a9U, 0xbd4906183d00e77aU, 0x3e0c8cb33d7f7401U, 0xbe1ac12bbe18cab3U,
  0xbd3de7debe066177U, 0x3e04727d3e1ac199U, 0x3d7689063cfee680U, 0x3dab1014bdb65f1eU,
  0x3da026253c6caa05U, 0x3e16cf94bb8d3661U, 0xbd98f7d03cc9fb29U, 0x3dc018003d8daf3aU,
  0xbdd347b4bdb89f6cU, 0x3d48b62bbce71850U, 0x3d3e9bfc3e05a57dU, 0x3dcf9187bdc92cedU,
  0xbd8fa5803deae60cU, 0xbd91c024bbb81740U, 0x3df4f70abe15440cU, 0x3dbab9743d87207cU,
  0xbd16dad93d9f3befU, 0xbe09856ebe1396a5U, 0xbd3fa8aabe0c43bcU, 0xbdcefa073dbf9060U,
  0x3de880febcd17d80U, 0xbce4da983dcec286U, 0xbdd3519ebde5514cU, 0xbe15e36cbdc8a10aU,
  0xbde4a8febc76e4f0U, 0xbd6b06523d673728U, 0xbdb773833d1840f8U, 0xbc892f303df8e882U,
  0xbd06938a3da2b608U, 0xbdf070a8bc869460U, 0x3d241fb83e0e3941U, 0x3d31af743d811e5aU,
  0x3da5d1603d645d18U, 0xbe1cbe23bddf9782U, 0x3e0f14dbbe19b3e6U, 0xbd93bc8bbd15a24eU,
  0x3d4de9c03baadfe0U, 0x3d1e51b8b80d0000U, 0xbdaae4803c965c48U, 0x3cd649a03df9f706U,
  0x3e0c5b0b3df224d6U, 0xbddf585bbdaff19aU, 0x3c99ffb0bd1067d0U, 0x3d4a07383e078aabU,
  0xbda202b93de0766eU, 0xbd82fbf73ca60490U, 0xbbdb1bc0be1c4b9dU, 0xbe181b9b3db9fabcU,
  0xbde2678a3d67c5f4U, 0x3d16c098bd1d2d5aU, 0x3dee5bd2bdddd9f2U, 0xbd164520be027f46U,
  0x3c1c0780bdc640a5U, 0xbd1f10eebd971469U, 0x3d415c70bd906c9eU, 0x3da93d68bc3f2750U,
  0xbe1036173d63379cU, 0x3d8ea7283da1f2f4U, 0x3c9505d0bd969af8U, 0xbd3e72eabdaeff77U,
  0x3d4b1bd03d5f2b24U, 0xbc1778a0bd31f3ecU, 0x3e080c0d3c9defa8U, 0xbd9c918f3dc16a24U,
  0xbdfcdb143de6424eU, 0x3df1210ebc8c3b20U, 0x3c9e66d8be09dd55U, 0x3c7479d03ae0bd80U,
  0x3d9b6130bdb1e139U, 0xbe1a04f13c804c00U, 0x3d02d538bdc7fc62U, 0xbd58d8cabe059528U,
  0xbe159d1d3e02dc1bU, 0xbdef34983d6d1860U, 0xbd425a9c3dbc9a82U, 0xbddb4e3b3d246458U,
  0xbd112998bded63f5U, 0x3da69c783e089b39U, 0xbca24460bdc5d7ccU, 0xbd66be683df6b26aU,
  0xbe03c53cbceafce0U, 0x3d9eb43cbe016335U, 0x3d8736783c3ac720U, 0x3df90626be05ada9U,
  0xbd3ab81cbc428840U, 0xbdb16f9bbdfff7f8U, 0x3e00a79f3d00e860U, 0xbe0906b43b53ed40U,
  0x3e1b21edbc875260U, 0xbe19992a3d0517d4U, 0x3d9010183d09b0c4U, 0xbe00102abc9b95a0U,
  0xbdf022c53cbf15a0U, 0xbd38ef0cbd53b12aU, 0x3db2ce00bda80086U, 0x3dbfa1ce3dd1037eU,
  0xbd027c80bdfafb92U, 0xbe0ec33db9998800U, 0x3da04ce03dbfdbb2U, 0xbdfd47513e06daf3U,
  0x3ddf9446bbfa5340U, 0x3e184581bd7d692cU, 0x3e18ada93dc8a6d6U, 0x3df8c0d2bc1ae190U,
  0x3d193eb8bda79062U, 0x3df04532bde9433cU, 0x3d255f303dc582c0U, 0x3e01374d3c2a19d0U,
  0xbddef648be1317c0U, 0xbe142aaa3d342068U, 0x3da524febe05d451U, 0x3e13dcc33d73a9fcU,
  0x3d5565403e183af7U, 0x3de874b6bcb87cd8U, 0xbb30c0c03cdc58a0U, 0x3e045efb3ded701aU,
  0x3bd351e03ccf7600U, 0x3c2b9fe03da974f2U, 0x3e13332fbdb53f23U, 0x3da90a383d2459dcU,
  0x3e016181bd00c482U, 0xbda7d8f33dada4e6U, 0xbcad1f18bdabb620U, 0xbdbe5a093c80ca88U,
  0x3d606504bdc02694U, 0x3b1d17003a74b600U, 0x3d7db0843d0fd0fcU, 0x3db3f7e6be072102U,
  0x3d9d13003d953c54U, 0xbdb4827dbe172490U, 0xbdf9a99ebe1384bbU, 0x3db4b61e3ddfe796U,
  0xbd72d82abdbae3d2U, 0xbd620f6abdb265f9U, 0xbe0ae3febd8f7452U, 0x3dd50866bd8873f2U,
  0x3d25a5b0bd5c6436U, 0xbe18dca63d1fc758U, 0x3d864854bdacae7fU, 0xbd207b9c3b921680U,
  0x3a0079003db16cf2U, 0x3deaf1a23e065a59U, 0xbd4576f6bd6924baU, 0xbdfba28fbe127646U,
  0x3c997a98be19d284U, 0xbe0ce1c83dcc4c92U, 0x3c313410bd96ee6dU, 0xbdfbbe00bca58708U,
  0x3e0634c93e1a5ebfU, 0x3d88fd8ebe192c7cU, 0x3e0eb427bd964219U, 0x3d63e4ecbdcc6df6U,
  0x3d499650bdf7c7f8U, 0x3c85de58be14e3edU, 0x3cd1c340bd353682U, 0x3dfdc3d2bcc8c210U,
  0xbe0ef0653db33960U, 0xbc2a4990bccb8f48U, 0x3dcba2f63de833deU, 0xbc84c4103d0a61f8U,
  0xbdfc3ead3d86a3a6U, 0xbe0329b6bda3b2cfU, 0xbda0ef4a3def145aU, 0xbc9747d03d4a36d4U,
  0xbda5393c3c051160U, 0x3d9c3d82bdbf1de2U, 0xbd94bd883db49d1cU, 0xbe0a585fbddf988fU,
  0x3d11ee2cbc4ebf60U, 0xbdcc7ddebe165d70U, 0x3de05bc6bd8c7406U, 0x3e1020413da327a6U,
  0xbcbd2328bdc36ea8U, 0xbb6916403d21ee98U, 0xbdadfdedbba2a460U, 0x3d90f64abdba69dcU,
  0xbb391c803d8b1b5aU, 0xbdee1c57bda18208U, 0xbd0b0fbcbdb44cb2U, 0x3cbcf178be0c0218U,
  0xbd615610bd487236U, 0x3d4d085c3d17c480U, 0xbcec9e6c3dc795eaU, 0x3dd3fcf2bdcf87fbU,
  0xbe0d9ff83b56fb40U, 0x3cf2c068be01067eU, 0x3d56a6c0bd880d2eU, 0x3d5f11e0bbb7a8c0U,
  0x3d477d603c4ef590U, 0x3dab9b24bd8356d4U, 0xbe142f38bdc62d38U, 0x3dc7280abd9c5c74U,
  0x3e006997bcd922e0U, 0x3d5fe718bdac774fU, 0xbd0286aebd175fbcU, 0xbc1964b0bdb001a3U,
  0x3d46acd43d4cbc3cU, 0x3e1c34933e198db3U, 0xbdff175cbdd0ced0U, 0x3db0495c3da1241cU,
  0xbe04e65a3ca92dc0U, 0xbdcbecadbd9f3e27U, 0xbde2d92c3d289560U, 0xbddab9b13dcc7e62U,
  0xbd196ae43d234a9cU, 0x3deab5cabde730c8U, 0x3d97f0e8bdf974f4U, 0xbd96e938bdc31aa1U,
  0xbdbb0aaa3ddc6fbaU, 0x3d4c33383dc82e2aU, 0xbc23f980be14faecU, 0x3dc7340aba3aa600U,
  0x3d4797703bd212e0U, 0x3de86e46bd6c0488U, 0x3e0653333d9c5978U, 0x3bb885203dc6864eU,
  0xbd5e387cbdd2c9beU, 0x3d945b2a3dd8b4b2U, 0xbca882a83c6221b0U, 0xbe149d613de0b2e2U,
  0xbdae2a7a3d7fceccU, 0x3d6179a83d9e08acU, 0xbdbdc49e3e00d6afU, 0xbcce0f483d3253c0U,
  0xbdf147debe14c914U, 0x3d9e1ba83c360600U, 0x3dbf04cabd0464a2U, 0xbdc96535bd9931d3U,
  0xbd5a55e0bdc64c96U, 0xbd50b2e43de8cf9aU, 0xbe028497bd1957caU, 0xbd9365b9be0b512fU,
  0x3b7a5380be0270b0U, 0xbdbd6b623e1976cfU, 0xbc4dfdb03e18f5b1U, 0x3d99c5ca3dceb792U,
  0x3e02925dbdb3c1e0U, 0x3d8dbd9e3d160274U, 0xbd97a7dcbde9a48bU, 0x3d9ce96ebc977050U,
  0x3d64d838bde32ea8U, 0x3d94b6643df14286U, 0x3e06a69fbc3ffd00U, 0x3de876423d3a1308U,
  0x3df4b916bc9b91e0U, 0x3de5fa4ebd6d3eaeU, 0xbd9621f3bd668556U, 0xbc54a130bcc26a80U,
  0xbd51fe00bc8387b0U, 0x3d8f415c3db07a82U, 0xbe09e3cfbdec2e54U, 0xbc19c5e03dc0b690U,
  0xbcf660883bbc1060U, 0x3d8d77cebe17374cU, 0xbd5bc1783ca2dff8U, 0xbe045ce23c6f30d0U,
  0xbde1c4fa3dcfc562U, 0xbc179940be130b92U, 0xbcfdbcb8bbb77ac0U, 0x3d8af6703d99e36eU,
  0xbdc0c457be114fb9U, 0xbdc4e6b23d476140U, 0x3d087d78bdf778d2U, 0xbde8d53cbd25e950U,
  0xbe04a4833d6f2b60U, 0x3dd1688ebdb881aaU, 0xbdfde8723c86baa8U, 0xbcfe3434bd782250U,
  0x3bb352c03d5d9634U, 0x3e1a44233dfb0ebeU, 0x3cfd09f8be1b3d7dU, 0x3cfd9fe03b896520U,
  0x3db50d48be14f584U, 0x3ca176e83dd0dfdaU, 0x3e0792f93c61e8a0U, 0xbcd37a50be180733U,
  0xbd8545a8bdbe1a48U, 0x3da5a34a3d9cd97cU, 0xbce55140bca7edc2U, 0xbca01b183dff3016U,
  0xbba03240bb686eb2U, 0x3df114a2bdf86885U, 0xbd71f4bfbe1cb3e3U, 0x3ed28bcf3cd6a1beU,
  0x3e195ec4bb1a3dc0U, 0x3dd5aecabd2d19feU, 0x3e0ea557be194694U, 0xbd3b3bb23cd97cf3U,
  0x3d3d9e9cbd270df2U, 0xbde7a9fc3db2db48U, 0xbdae238f3b5078c0U, 0xbb9eecac3e0294b7U,
  0xbd9058313e09392dU, 0xbc5bb8b03df87c3dU, 0x3e4cbf51bdcf9f56U, 0x3d57f878bd325f9aU,
  0x3ba10a20be1b9ba4U, 0xbdaf4da03d036f74U, 0x3c60f1803d4743c5U, 0x3db8a109be0e1275U,
  0xbdccd9483d391272U, 0x3d98a8623e0d1a37U, 0xbe098397bcd8e9f0U, 0x3e183e1f3d713334U,
  0x3df2615fbd73bc7eU, 0xbdc82e16bdba47c7U, 0xbd7492883d5342bbU, 0x3d2edfeebd9ca7a6U,
  0x3db156ecbd4d6013U, 0x3d1e8a68bc034840U, 0x3dcee719bd03ca90U, 0x3e10ac7c3db69418U,
  0x3c632245bbfe0340U, 0x3dab43c4bd942b19U, 0xbe138f243d964f7eU, 0x3cd6bf803c8cfb19U,
  0xbd2f6ae8bda4c8b5U, 0xbe000f3f3ceb9c91U, 0xbcf5559cbdcdc473U, 0x3e0066233ddaca6eU,
  0xbda9ac7f3d912099U, 0xbdc7d2b1be158780U, 0x3dc292183de277feU, 0x3dd6079e3e069f38U,
  0x3c5f3c1b3c926554U, 0x3d5dd1d43dbddb15U, 0x3e0b60813cb60a1cU, 0xbcdd19a8bde50feaU,
  0x3dfcd47dbe0d7547U, 0x3ddf44c5bc11e7f0U, 0xbd6cb8123dba9d12U, 0x3d120051bc922670U,
  0x3c9bbaa8bcdd8f6aU, 0x3dde645ebc5d6e40U, 0x3db48de4be10fa7eU, 0x3e0119253dd8cd8eU,
  0xbe4867063ca373efU, 0xbe009367bdd0d045U, 0x3dc1d84b3d32c5b1U, 0xbd92db4bbe0030abU,
  0xbdb2be983da27ca4U, 0x3dcf023abe197f06U, 0x3c7aa9903e0fd50dU, 0x3e0408f5bddabfc7U,
  0x3c9482503d98fa8aU, 0xbd6c9ff6bc376620U, 0x3d5d3408bd355758U, 0xbca5d9f03d7b20b4U,
  0x3c2e08b0bd9c22fcU, 0xbd756cf43d99f4faU, 0x3da010403df0c15aU, 0xbe1be87c3e1440b7U,
  0x3c76b2703dae699cU, 0x3b9a2c00be09b8a8U, 0xbdbb4c923e0a97abU, 0x3cf9d3e0bdff53dfU,
  0xbd49b352bbdcac00U, 0xbde920babdff0933U, 0xbde279a03d6026d4U, 0xbd489984bd8267e8U,
  0xbbc73a603d99265cU, 0x3d8d38ac3dcbb0deU, 0x3e172857bc0f0700U, 0xbd971f5bbd5dbd96U,
  0xbe14568ebdedfeaeU, 0x3d9335183e027fb9U, 0x3d3cf964bd640e98U, 0xbc85f490bdaababaU,
  0xbd036b523d277f8cU, 0xbdeb6eecbdfa6284U, 0xbb424d403dfdcca6U, 0xbcdad050bd57fb1cU,
  0xbd3da71cbe17d8f4U, 0x3bd744003e06bcf9U, 0x3debe2123e0f7109U, 0xbe1bd07a3d216c8cU,
  0x3dcb9762bc0a62b0U, 0xbbf9b9403daebc2aU, 0xbcfa5a70bd194712U, 0xbdca33363dfaae86U,
  0xbba3fb003df4e86eU, 0xbd20df28be021ecbU, 0x3e090673be075d8eU, 0xbd0595543da9f02aU,
  0x3dd4006a3db2e02eU, 0x3dd9833ebc3151f0U, 0x3cc96d103dcbfc4aU, 0x3d1eec14bdc030fdU,
  0x3d1fc800bdc16b84U, 0xbe1ad51cbd7df850U, 0xbc4d6980bdd5c7c4U, 0x3c9d46a83c8f3560U,
  0xbd98d1173d51e534U, 0xbc837250be0cb626U, 0x3decf93abdfda5f7U, 0xbe12f4d1bc547e40U,
  0xbd0d27a4bccd29f8U, 0x3d2a3c843d0d67d4U, 0x3d235d7cbdc185bcU, 0xbdbc076cbd9d16d8U,
  0x3d9e9072bdc69530U, 0xbd6aa1523d4f75c4U, 0xbdccd2fc3ce9cfe0U, 0x3d99b9503cd33100U,
  0xbdaea5b23c4f0970U, 0xbd777340bd27444cU, 0xbd8c70fbbd88e5a3U, 0xbd7565eabd874d2aU,
  0xbe17d565be16fd61U, 0xbdff878fbde60421U, 0xbd97c94abce05150U, 0xbdeabc74bdbfcbccU,
  0xbe000d5abdc09d18U, 0x3cd2e7083dc6111cU, 0xbd79ddc03d6df694U, 0xbe0a7b493ce321d8U,
  0xbd9fb6e23e087d9fU, 0x3db6657abdb9d4a2U, 0x3d8da9543e12d3f7U, 0xbdfa4590bde4f29cU,
  0xbd568efa3c1574c0U, 0x3c1108a0bdbeab36U, 0x3e1a49ddbe11becbU, 0x3d465c903d078f9cU,
  0x3dfa69b2b9943c00U, 0x3e0baea93e07543fU, 0x3d7551183d896f62U, 0xbd681e68bdafb03bU,
  0x3de77e1e3d2b1150U, 0xbd500b603db95754U, 0xbd5a28063c642b00U, 0x3dd70f0ebdc4bb72U,
  0x3e1168e33dff2d3aU, 0xbe09f3fb3b361480U, 0x3df9875abd1fa5e4U, 0x3dbf1af8ba7b2b00U,
  0x3db2683cbc71ffe0U, 0x3d28700cbe02933bU, 0x3e19332f3e08ac89U, 0xbcc1c9d0bd7e1144U,
  0x3e165803bdc20512U, 0xbdc45a443e13cb59U, 0x3e0deaf7be0283d8U, 0xbd8b91e33e058459U,
  0xbd9d35e2bc5905d0U, 0x3dcf86763d701964U, 0x3c8f8248be054fd3U, 0xbe0e8738be161ae1U,
  0xbdb54f8ebd917916U, 0x3d8b6c70bdef1468U, 0x3d5a2580bdf84b0eU, 0xbdba90b5bd9cf29eU,
  0x3b450a40be00d6a4U, 0x3d8a9c2cbc0b0e50U, 0xbe00de3cbd5f80e8U, 0x3d761ca0bd65e632U,
  0xbdb2e2b03d7dddacU, 0x3d235a943d5215d8U, 0x3da0d95c3e111739U, 0xbd5e4b9ebddd51d4U,
  0xbda4f5c7be12a35cU, 0xbc92d3803cb44268U, 0x3e02a0393d97b5bcU, 0x3c07b1c03dbad1a4U,
  0x3de9ab2a3d591aecU, 0xbe0a4c9c3d05f27cU, 0x3d87ed123dcffb2eU, 0x3dbaa076bb2f6d80U,
  0x3dfc2f023e15cd9dU, 0xbd3ab66ebd996974U, 0xbd9777853dbf1a92U, 0xbde8e6923da80b6aU,
  0x3d917e403dd3f02eU, 0xbdd7da193db0cdc0U, 0xbc0b5a10bcb3fb10U, 0x3d47f6643e0814f3U,
  0xbdb598903ccf2de0U, 0x3dd52e763d75c424U, 0x3dd1a7423df78186U, 0xbd0ed3eabdb839e2U,
  0xbc59e4b03aef2300U, 0xbe01d4113c3172b0U, 0x3df5236e3e11480fU, 0x3deb7b22bc8e15d8U,
  0xbca7a620bd506676U, 0xbe0396993dd0365eU, 0xbd388c62bc9ef720U, 0xbcd11e703d9a8842U,
  0x3db34870bde8f1c4U, 0x3be82ca03dc465f0U, 0xbe0dfd4dbe1b6260U, 0xbe01a4c23ba56940U,
  0x3e01ec4fbe149223U, 0x3d9fc6e6ba88cf00U, 0x3d9ebbde3ddbf4c2U, 0xbd1bca543d94b386U,
  0x3d882964bde3e71eU, 0x3cbe5ee83dc3faaaU, 0xbd66dc24bdd6831dU, 0xbdf8ee8f3db6d9bcU,
  0x3d784e383e1caff3U, 0x3e173529bcedd3d4U, 0x3d853336bceb0584U, 0xbd3a81e0bdb72b24U,
  0xbd987495bd990b7fU, 0xbe1089fe3d8a3c50U, 0x3d0118e8bd916f31U, 0xbe1b85d33db3a4acU,
  0xbcebe6083a5cad00U, 0x3cc04b50bde631d4U, 0x3dc0eee2be08c3aeU, 0x3dd71d72bdf88432U,
  0x3af39700bdf1f566U, 0x3e1385533d771274U, 0x3dd1be6e3db3ac8aU, 0xbdbb5e9e3dfdf4c6U,
  0xbd855133bbde66c0U, 0x3b07f080bd8545d5U, 0xbd6a1762bd40321aU, 0xbe003e2dbbae7ce0U,
  0xbc4a3650bdfd620dU, 0xbde330f9bc659220U, 0xbc8b5b383cfd1208U, 0x3c777500bdcb89f8U,
  0x3deebce6bdc9f48aU, 0xbdcff62bbe1177c7U, 0xbdc31829bdac7f2cU, 0xbdc94742bdbcd3f0U,
  0x3dd6e9a2bbe192c0U, 0xbd6ba3a03b583a40U, 0x3bb6d1c03e14a7bfU, 0xbcc17bf83b5af280U,
  0xbe27106fbd9512f0U, 0x3c0447a93da4b23cU, 0x3d254c6cbdc628a1U, 0xbdc38479bdb6e599U,
  0xbda561803d879575U, 0x3bf48e403b847399U, 0x3de07efebc0a7420U, 0x3e0b675bbd9d7b5bU,
  0x3c1b88b5bd7e2f14U, 0xbdc33118bd820623U, 0xbd9fb3363e03d209U, 0x3c170c903da45678U,
  0x3e19bf8d3d8221e8U, 0xbd8c44d23d6df074U, 0x3d68eaeb3e18da33U, 0x3cc7e8f53dda5d02U,
  0xbb859467be0f63c9U, 0xbd6d2e74bd13e4ffU, 0xbd2df6c43df879faU, 0xbd39584ebd73604fU,
  0xb78d80003dbbbcf1U, 0xbcf84e77bde6766fU, 0x3e15c2573d603792U, 0xbc82dee23dda34e6U,
  0xbd9d55e6bd693fe0U, 0xbd81718abcb6d5b0U, 0xbe0cde0d3d8ee47eU, 0xbe0811c13cc33480U,
  0x3d85bd7d3dd5a6c0U, 0x3d73ca903e15dbedU, 0xbd1a69fc3d09aaddU, 0xbe1542d7be027e5aU,
  0xbd1f8b06bd937a49U, 0x3ce2d0c8bd9bb09bU, 0xbdddb8e2bd61e3e7U, 0x3d0d134b3b697557U,
  0xbd4a23c13e028b5dU, 0xbe0bcdf03d9e0390U, 0x3db90d7f3dd44872U, 0x3d700eacbd486d15U,
  0x3de908bdbd1b4ad9U, 0xbd086af4bc48c006U, 0xbdfdade4be200ec4U, 0x3dd231d6be033638U,
  0x3e178adb3cf04f81U, 0xbc25a422bd9712abU, 0x3b90d997bcaa6fd8U, 0xbd661516be29f33aU,
  0x3e05d6753ca4a1e3U, 0x3d6a54853de70b27U, 0x3ca97c10be09abddU, 0xbc8e57d8bbea3674U,
  0xbe00e7f43def50a2U, 0x3d3d8aa53da60ec4U, 0xbdb72291bc483b60U, 0xbd9a2389be12d505U,
  0x3de165323dc8db2bU, 0x3debde3e3e1aeb23U, 0xbe0346ad3d993f6dU, 0x3d83f6f6be2b87a7U,
  0x3cfd933c3d93fab7U, 0x3ce218d4bbf98d80U, 0x3ddf68c1bd7ea310U, 0x3d6b1e52be14e100U,
  0x3de7cc74bde210d5U, 0x3d7106073d0edff0U, 0xbde50e88bcc195afU, 0xbe1199ea3a362000U,
  0xbd7a9fa43e174406U, 0xbd97360ebca8c4feU, 0xbc8c7391bdf6212aU, 0xbe802243be07ed44U,
  0xbdddc8663d0ce854U, 0xbd2a8990bd4db892U, 0x3d5a61a8bde1fdf3U, 0x3df9112abbd2417dU,
  0x3bad9880bd7a40d6U, 0xbbabc9acbe1a470fU, 0x3d1b59333e0cef59U, 0xbe13647e3d56fbacU,
  0xbcc28342bd80306dU, 0x3dcc0b323db3a43eU, 0xbe40c1eabc1e4710U, 0x3d515424bde52d8aU,
  0x3d954104bc0cb606U, 0xbdccc94dbdc0011aU, 0x3d9e922cbd8b4e6bU, 0xbd0ea3e0be14ba51U,
  0x3d92dd34bc8e8541U, 0x3da015363c89b958U, 0x3d8bbd44bc139e20U, 0x3dd4430e3daccad6U,
  0x3d15afbd3e19d42eU, 0x3d94a3b83ab55900U, 0xbe12538a3e0462cbU, 0xbcab1be53df4dd3aU,
  0xbc278da03e07e9c2U, 0x3d3801443d0ed36cU, 0xbd1d4ef73ddf92b7U, 0xbd0663b73dcefd95U,
  0x3ded2b3dbdae141bU, 0x3d6b39a4bdad29eeU, 0xbd461f023d67576cU, 0xbe1b5dc1bd0b31e2U,
  0x3cc04547bce2a526U, 0x3cfabde03d40b30aU, 0x3d82c68a3d2cb071U, 0x3e0399b5be0aa303U,
  0xbe0f6c753d205d51U, 0xbdf4da493d81c44eU, 0x3d0ef29e3d88c46aU, 0x3cb4bb683dd0cd48U,
  0xbc0875adbe05a507U, 0x3dbdab883c437e64U, 0xbd47fda83dfd1fd2U, 0x3df6a526be0658a5U,
  0xbe067e8ebe02c016U, 0xbc02b5e43df8f82eU, 0x3dec991a3e050e45U, 0x3e0f6a15bde641b6U,
  0xbd21c64a3d3c1db3U, 0xbd394f6cbd771ac4U, 0x3dfd19f6bdb458bbU, 0x3ded52be3dacd506U,
  0x3cc0a5543e177924U, 0x3c79f38c3df7d3d6U, 0x3dc0c925bd7de85aU, 0x3c033648be06f049U,
  0xbc6d3150bd571eb2U, 0x3e12fd553de4751eU, 0x3dbeb938bdd84b37U, 0xbdadfb2bbdc4d835U,
  0xbcc5a0e83dc9e5deU, 0x3d8fa932bd53ad1cU, 0xbd9f912a3dcb8562U, 0xbdeb8e8e3daa46c6U,
  0xbdef8d90bd4b8daeU, 0xbccea7f03e11867bU, 0x3de66edebd8946b2U, 0x3c42a9a0be172bbbU,
  0x3dc90f7a3e0a81cdU, 0xbda2315c3bd49b60U, 0xbdc6f4e03be0f420U, 0x3de7508a3deb75c6U,
  0x3dde1a063dfed68aU, 0x3cb8a4b83df63bd6U, 0x3c0a98b0bd12e9eeU, 0xbcf351283cc00680U,
  0x3cf29478bdc097caU, 0xbe1977803dfbc17aU, 0xbdce427cbdfaefebU, 0xbdd103623db82210U,
  0xbda725dabd79cf52U, 0x3c893528bddc7f00U, 0xbd95f6393d77b0e8U, 0x3dd033fe3db1de94U,
  0xbe13e9363d85a716U, 0x3dfba11abdba5fccU, 0x3e07f32d3d8b6cdcU, 0x3dac824abbfe4340U,
  0xbe10a4223dd2b60eU, 0x3c804d483ceb3cf0U, 0xbe01e758be19aa28U, 0xbd9e5f0abe0a82ddU,
  0xbd8d32bdbd4f7068U, 0x3d74dba0bc435f10U, 0xbe15bcfc3a867200U, 0xbdf67a8e3df43daaU,
  0x3df4922a3d1a74d0U, 0xbcf857f8be067357U, 0xbe06570fbdaf8782U, 0x3db29dd63d19dd04U,
  0xbe000ea43ddfee86U, 0x3d411f18bdc7b774U, 0xbdedc2963dc40a56U, 0xbd897c0dbd87bcddU,
  0xbd192a18bd83cd0dU, 0xbd197adabdac63d4U, 0xbd7b8caa3dc0107eU, 0xbdf25ec83da20b38U,
  0xbd5457b0bd5bc710U, 0xbe18aa0a3d3ba2a8U, 0xbdcc940c3d341204U, 0x3d81fe40bdb1a0ecU,
  0x398ae0003d944c20U, 0xbd8ad2b6bda72cfdU, 0xbd8f28373d650a20U, 0x3d29fba4be18a364U,
  0x3dafccd8bc3b0ea0U, 0x3e0169973db858d0U, 0xbd0aab9e3d0326ecU, 0x3d77cbd03c3e0f20U,
  0x3e139f733c5129e0U, 0xbdd83f103caeda38U, 0x3d1cd9443dca680eU, 0xbdb15c6abd94c56aU,
  0x3cbff7303cc70208U, 0xbddf5034be0d16b7U, 0x3b899700bb45b980U, 0x3cbfc7983c9cffa0U,
  0xbd488a2c3d62c390U, 0x3e1c19073d0099e0U, 0xbda2f18cbd8cc474U, 0x3da78ab8bd3b751aU,
  0xbda0e1483bbb3800U, 0xbe1cb8e2bdcaa32eU, 0xbcb3df303d4d84acU, 0x3d49044c3d683b38U,
  0xbc7a9bb03c9b3650U, 0x3d8932da3e0e3bdbU, 0xbc119f903d000624U, 0xbe18f46d3ce5e770U,
  0x3db357f0be1bd163U, 0x3cde13e8be03536eU, 0xbd89ad713d363f18U, 0x3dbc23223e08f1d5U,
  0xbe0a9db13d7eb610U, 0xbe08a512bdd3ed94U, 0x3d560eb8be02269fU, 0x3cbf38a8bde99d23U,
  0xbc2287a0be09082bU, 0xbe020d413dda8882U, 0xbd9686d2bdecc138U, 0x3cb16db8bd3db66aU,
  0xbd3087fabd8fd96bU, 0x3dfc6d5e3d92b512U, 0x3d2f81d8be1210b5U, 0xbe050c56be151143U,
  0x3dcb38723daf776eU, 0x3db8a66ebc377680U, 0x3e16dee7bcffdc48U, 0x3d13b5bc3d891c4aU,
  0xbdc0ea7bbe1479ccU, 0xbd9d1659bd994e91U, 0xbde2c2bfbc833ae8U, 0x3c8d2ce8bdd4c880U,
  0x3dddc0923cf80de0U, 0x3e0fdc1f3d18f6d8U, 0xbcc043d03d138190U, 0xbdf26eb4bdbb9d72U,
  0x3d3ba504bcb437c0U, 0xbd9adaedbdc4dfacU, 0xbc06d8603dfddd4aU, 0xbd5ac7ee3d477148U,
  0x3d0bc1983dfaf99aU, 0x3da8451cbdc5fa1cU, 0x3e0481b33d0408a0U, 0xbcb1c710be146e92U,
  0xba719a00bcd878b8U, 0xbe03c9f13d9c3c66U, 0xbd38374cbd525db8U, 0x3e18c169bdff9a90U,
  0x3e083f41bd91254aU, 0x3cf96790bcb51ba0U, 0xbe1624d03e09b42dU, 0x3dc28a92bdb86fedU,
  0xbdbbab03bd60a9a4U, 0xbd4a4ad83e151cb7U, 0xbe1cb89dbdc64b36U, 0x3e088301bdd1b4dbU,
  0x3cd03b083c5644a0U, 0x3e15eaefbdbb100bU, 0xbe03cd863b634d80U, 0xbd09d1babe0777d7U,
  0xbd9b69f43a745600U, 0xbc7b50a0bddcbbe4U, 0xbcd7f510bdd87246U, 0xbe06279cbd01edb2U,
  0x3e171f77bd27f464U, 0x3e0f4275bd8a9e81U, 0xba3343003d0461ccU, 0x3cb6c0f03d84d4ccU,
  0x3d5b4bb4bd93d127U, 0x3bb4a920bd9461b6U, 0xbde1d0fe39d57e00U, 0x3d7cfde4bca48310U,
  0xbddcf5a1be10d1e4U, 0x3dc331363e0b6399U, 0xbe0137203e01bbc1U, 0xbd5a707abcd69ea8U,
  0xbdc5710d3de4fbeeU, 0xbdf6cb0a3bf61ce0U, 0x3def53ca3afc0900U, 0x3e13609fbd83b30cU,
  0x3d2ec724be10a0fcU, 0xbd14f1683d9768c0U, 0xbcfbfc50bd3e9df8U, 0xbd549d28bd8845d8U,
  0x3bd827c0bd29d0aaU, 0x3afff6803d04d3b4U, 0x3e091a1bbd7338baU, 0xbd4f78dc3d9f4572U,
  0xbd80bd46bde7a4d4U, 0x3b3f2940bd8794e8U, 0xbda0e1523e11555fU, 0xbe17d2e8bcd12b88U,
  0xba0500003df8f6e6U, 0xbd73560cbde3a48aU, 0xbd3899e43dbd4fbaU, 0xbd73b9103db57c2aU,
  0x3d4968803ca645c8U, 0xbe1b0c01bd9e48e5U, 0x3d6e59a43ce52938U, 0x3debc8263e02b083U,
  0xbd00ef4cbe011e27U, 0x3dc3ab603d0ab7acU, 0x3da14406bc9b96b0U, 0x3deae10ebded3248U,
  0x3d60a9e03e0a18dfU, 0x3db34a323ca21b68U, 0x3dd86d0e3dd0629eU, 0x3e00e75f3d9e1350U,
  0x3dfd4b7a3e1c6533U, 0x3e1c0a853e0decf1U, 0xbd84c5c1bdb82177U, 0xbc755b803db6b73aU,
  0x3d3593e4bdce8eabU, 0xbcbc4328bb862e60U, 0xbd8bea423d66867cU, 0x3de2cea2bbf5b480U,
  0xbde91a833d61329bU, 0xbd88d8f83d3f5d75U, 0x3e175a3bbe02d1dfU, 0x3dd3d24a3c4cf490U,
  0x3df9f6febd6373c2U, 0x3e074e73bd3e31a5U, 0x3bdab171bc9e7870U, 0x3f065ef6bcd44274U,
  0xbc53db0d3d846406U, 0x3d87ab503da12994U, 0xbe1b6af3bd0277daU, 0xbd14f7ba3d34d4c7U,
  0x3df7560e3df13ddaU, 0x3da4acd33d4b36b8U, 0x3bf84b2a3e01d101U, 0x3e4bb73c3dfb8892U,
  0xbde1e6a63d6e08f4U, 0xbdc639d5bdc7b7c2U, 0x3e9fa52f3d33b875U, 0x3da230febc964748U,
  0x3db5b7c63deee61fU, 0x3e1473f53dfea214U, 0xbd905dfb3dccf1b8U, 0xbe0b469f3d865576U,
  0xbded04d9bb357606U, 0x3d7e71103e19ffabU, 0xbda1da7b3e18f15dU, 0x3d87a326bdce735cU,
  0x3bdfc5d63d8e5852U, 0x3dd926d13e07a85dU, 0x3dc423a23dfa3cb2U, 0xbd4b4d48bc537ed0U,
  0xbca1b5e83d0ba7bfU, 0x3e0963f5bb123900U, 0xbc24448dbc973910U, 0xbdaaf9ba3e1773caU,
  0xbd8d16d5be1c6333U, 0xbc52b5703dbd9c82U, 0x3dfa134fbd5c6566U, 0x3dffdbce3e06471fU,
  0xbc821348bc7550e7U, 0xbd21e8da3e1784eeU, 0xbd89c1abbe24817aU, 0xbd9df61cbdb397dfU,
  0xbd93be04bc8121ccU, 0x3d273d00bde3a406U, 0xbda1e9ca3d2426a4U, 0xbe09ab6fbe005886U,
  0xbda8ccb1bd0f5e69U, 0xbd384b5a3db260c0U, 0xbc053df63c0aad42U, 0xbd2858843e3cb657U,
  0xbcb2bf4b3b6d37c0U, 0x3d661156be1342a5U, 0xbdbffc4abe17ad3cU, 0x3da9c4513e180807U,
  0x3e13354bbdf51637U, 0x3ac549003d142170U, 0x3e0e31ff3cb72da2U, 0x3c8c5ae03db9a248U,
  0xbe44ce51bd3e9600U, 0x3dceeaeebd636628U, 0x3e10bddebd8235e6U, 0xbd7ea5cbbde3c30bU,
  0x3e13be4fbc54ef17U, 0xbc85f441bd8e3495U, 0x3d24128c3d0903dcU, 0xbd7146f23e18d04bU,
  0x3d855740bdd94aabU, 0x3d45af90bd240efbU, 0xbe156c9bbe1a64d8U, 0x3edff46bbe254eadU,
  0x3cbde2db3dd7e832U, 0xbdd760b2be1b0c65U, 0x3df351be3e14ce00U, 0x3d5a279cbdfc0365U,
  0x3d6ed62c3d291138U, 0x3de8ed1bbdeeb818U, 0xbd588a15bbdaa720U, 0x3d9829013bec6c80U,
  0x3c8dd69ebe033853U, 0x3da6a06a3e17ad2eU, 0x3eaab8fe3b2c9babU, 0xbe1626f73d2be198U,
  0xbd5883fabdbd2646U, 0xbda768de3df95fe8U, 0x3dac345abd8daa95U, 0x3da86594bd6eb77aU,
  0xbdcab513bda894c5U, 0xbdf42a46bd8f18b2U, 0x3ddd3ec6bd5bc02cU, 0xbdefda263b906460U,
  0xbbefa65abdccba5bU, 0x3e0a3f96be152a35U, 0x3e0f5a8dbe173bc5U, 0x3d9534463d2af840U,
  0x3ca5af98bc40fa81U, 0xbd8e7cc5bdcecde0U, 0x3d83f3393c983254U, 0x3c5f3ebd3e10d63bU,
  0xbda2967e3deb7956U, 0x3d3136f83cdd6758U, 0xbdb0ddafbdb81e28U, 0xbd05323c3c1da786U,
  0x3de62130be9f37d1U, 0xbe0690133d822b7fU, 0x3cddd0383dff1e22U, 0x3d818baebdc46289U,
  0xbdc63d113d84db75U, 0xbdb42593bdcecdf4U, 0x3d49ee263d440f50U, 0xbdc743383daf4c77U,
  0xbbb760a93d92b0abU, 0xbd30f82cbd47479bU, 0xbd4e689d3d1e5db7U, 0x3d5967343e054fa7U,
  0x3dd9809cbe0d0da0U, 0x3d798ef0bddf60eeU, 0xbcc1f4283d1740bcU, 0xbdafb03abda8cd0aU,
  0x3e1553d7bd855306U, 0x3b3be180bcadb010U, 0x3dc4f66cbcadbe07U, 0xbd9b52573e1d9a93U,
  0xbe2ea7d43d26f047U, 0x3dd4f8acbe025da8U, 0x3dd650ed3d249362U, 0xbe08c5033c3b9b70U,
  0xbe0c4f03bd438a0aU, 0xbcafa1b0bdd7f00cU, 0x3c254d60bddcc114U, 0xbddcb3123df92f02U,
  0xbdf7c580be133c54U, 0x3c43a9f0bdf68064U, 0x3df33582bdb5b6a5U, 0xbe16b3b73d351050U,
  0xbe0527c03dd59e1aU, 0x3dbdcf963d45e708U, 0xbe0cb54cbdc54028U, 0xbd30762ebddab5acU,
  0xbcee4cd83d9b041cU, 0x3db98e663d85ec18U, 0x3cf47e70bde512c7U, 0xbd8fbf87be0dbed9U,
  0x3db27686bc00a790U, 0x3d4bb6183d4bb10cU, 0x3c88ee203e14cc0dU, 0xbd4a86d23b917f40U,
  0xbc842780be1a6fa3U, 0xbd86fd27bda8aa7fU, 0x3e19ef6b3dfdda8aU, 0xbdc025fc3daceb1aU,
  0x3db8a1563e0a45a3U, 0xbdb6cd7cbd6c3aceU, 0x3e1543ed3d8d6070U, 0xbdeeae90bd3c16d8U,
  0xbced0c0cbdedf9e0U, 0xbd7ef67c3de0fad2U, 0x3df9720a3d5232dcU, 0x3d7fee4cbdc64e4aU,
  0xbda3a1653df43546U, 0x3dca32da3db71fa4U, 0x3cec6168bd9a5a6cU, 0xbde02d0fbdb12c5cU,
  0xbb5a0280bc64b7b0U, 0xbcd6b628bd15438cU, 0xbd159bcebdac5b86U, 0x3cefc1903d956ec2U,
  0x3d183428bc1eebc0U, 0xbe0a55a7bdd336b0U, 0xbdfc66c93d95134cU, 0x3e11b9d13d1066dcU,
  0xbd32190cbd7cdca2U, 0xbcee8cd8bde1cedeU, 0xbe1a58373dd58716U, 0x3dc715e23b5b4700U,
  0xbd031de6bc3ed140U, 0x3dadcc40be02c8cbU, 0xbdd6df163d12b444U, 0x3dcc0cde3da4c0ecU,
  0x3de08f62be07bc76U, 0x3a975280bde992baU, 0xbe0b017dbd898568U, 0x3e01e7533df70e3aU,
  0x3de9a3f2bd983de4U, 0xbc2c1f70be071a5eU, 0x3bb64a80bdb63078U, 0x3e176c073db2e536U,
  0xbd53e438bdcc0a03U, 0xbb729d40be0a51daU, 0x3c3cfc003d19a220U, 0xbd7edf983b88ae60U,
  0xbe1ed43a3ce1f519U, 0xbda2ab21bc16eb31U, 0x3e035591bdb86cd3U, 0x3dd112cabd2ee4ecU,
  0xbd5c2554bd96f46eU, 0x3d7b4cfc3d6c68b3U, 0x3df30470be158f9fU, 0x3ef1190a3d997aaeU,
  0xbdced1353d3918d0U, 0xbdbad614bbb29380U, 0x3ddf0592bb315a3bU, 0x3dc8aee6bd8ad472U,
  0xbcd183c83d816528U, 0xbd7c72343d80adfcU, 0xbd714f2cbdf946aaU, 0x3e2669d6be0bb812U,
  0x3da297f7bd7f3a9cU, 0xbe0c43633d4aa90bU, 0x3dbc970cbd3faf34U, 0x3d064c00bda957adU,
  0xbe1040ffbdb3205aU, 0xbd35e1df3cd90004U, 0xbd2666bc3d7f6eefU, 0xbcdc4171bddcdcf1U,
  0xbc4525c03d1cb9d2U, 0xbde8895cbdbb33a8U, 0x3d804e92bde77358U, 0x3d8b349e3d8d20e2U,
  0xbd2574bebda42ff4U, 0x3e016314bda4e7c0U, 0xbdf5d2353d2cfec2U, 0xbe15c6a3be08af79U,
  0x3e04d4c33d6b3e76U, 0xbe048f123cde4cd8U, 0xbd5d1a693e09ed27U, 0x3d817d9ebddef3abU,
  0xbde015693df1c83eU, 0x3dcfbf623d867ae8U, 0xbc9af8efbd99f32eU, 0x3dfeb4a23d897852U,
  0xbe0d62b4be405a81U, 0x3d5d6c4cbdaed24eU, 0x3dba81c83d84fbbeU, 0x3c1ebf803e1991dfU,
  0x3d150c04bcfe817aU, 0x3df45127bce2cab8U, 0x3d3d0a853d971ad8U, 0xbc9116e83e06eb75U,
  0x3b2d386abc9df8f2U, 0xbd7c690abd0597dbU, 0x3e06138d3da9bc07U, 0x3a0063003d90e566U,
  0xbd9c1b933cbfa0a0U, 0xbccf29adbc9035e0U, 0x3e120e3b3d209128U, 0x3e140347be05f1e4U,
  0x3c20f2b03d61283cU, 0xbd87420c3de84e2aU, 0xbd2c90a0be1da056U, 0xbe1b1e203dd7a9b4U,
  0xbd780b37bdf97e6cU, 0xbd9008843bc92700U, 0xbcbb610e3dea64a9U, 0x3a7df9e8bdd5f00cU,
  0xbe1170a63d432b94U, 0x3c750c80bcd66c00U, 0x3b1bce40be1075fcU, 0xbdff761b3c5bd290U,
  0xbdbd07603d3e2104U, 0x3db8b43e3e0decd3U, 0xbdcc3fa2bd2b6150U, 0xbd87bca7bdd750b8U,
  0xbe0ba842bde0fee4U, 0xbe0a8faabd6f6484U, 0xbd1c3264bd6e5576U, 0x3d87a554bd2091ceU,
  0x3dc0b4d83e0b9999U, 0x3dccd7ae3e100e3fU, 0x3d2c6c9cbe046524U, 0xbce380103e0995f5U,
  0xbce54cd03e1b2fdbU, 0xbde27216be0496b2U, 0xbdf64aecbd5a75b8U, 0x3dc82ecabe0c64adU,
  0x3b5649803c5a86d0U, 0xbdec57a03d7902c0U, 0x3cf68da03de8be22U, 0x3de259723d37d554U,
  0xbe0c5ce6bd3b35a6U, 0x3d872c0ebe067581U, 0x3dd168f23d973692U, 0xbdd11ffe3d8d575eU,
  0xbd2e23b8be16f37aU, 0x3e0bc8d9bd2b8212U, 0x3e07a3c13cfa83c8U, 0x3e1a5e59bd86c1deU,
  0xbd904c9abdcdf48aU, 0xbe097effbd3f20faU, 0x3b9ec5003db07d92U, 0xbda965b1bdef2bedU,
  0xbd927a353cf86310U, 0x3e039799bd4fa15aU, 0xbcf4da843ccd26e8U, 0x3d7e545cbc7aad40U,
  0xbdf162f7bd8a9bb6U, 0x3db422923e1aa241U, 0xbdc2c98c3e1c8be9U, 0x3df9f6fabdf865bcU,
  0xbe0a6be43e1a1975U, 0xbd59b938bd422766U, 0xbe1c2fbd3dbf7f00U, 0x3b9cfe403d08dbb4U,
  0xbd21f6523da0f7d8U, 0xbc57a7d03df05176U, 0xbe061538bca03280U, 0x3d2fc66c3d1f4f34U,
  0xbddcd4b23cded070U, 0xbe09ea243dd04cceU, 0x3e147d7dbe17c73eU, 0x3d05fb703cb2fb18U,
  0x3ce806b03d0cc210U, 0xbc15b180bdd600deU, 0x3e021c973cfbeda0U, 0x3dfb7d523d79de70U,
  0x3bd15f20bdf4a46cU, 0xbda27bd23db219c6U, 0xbda990e73c3da420U, 0xbde41c423b1ff9c0U,
  0xbd01ab6ebcca435fU, 0xbe180a033d4dcb1bU, 0xbe15b80f3c21ba4fU, 0x3dc104e8be0f8789U,
  0xbb244f403ddafd54U, 0x3b3be7003db151a9U, 0x3df277c3bdf1b146U, 0xbdeecbc3bdfaa39fU,
  0x3d9151263da745d8U, 0xbe0276e93d8910acU, 0xbc1f7a903dd6b478U, 0xbdc0e0f8bcc74fc0U,
  0x3e0bdbc93d9009d6U, 0xbd0f3db6bc481660U, 0x3dce902b3d862056U, 0x3d81eea5be0af03dU,
  0xbdee03ccbce1bde8U, 0xbdb71aae3d4d5553U, 0xbdc88d32bd2a2fc9U, 0x3c0934003d8e784aU,
  0xbd1fcb84bc00cde3U, 0xbccb82f53e0fa663U, 0x3d671f48bd3eddfdU, 0x3d9a8c23be0f6d73U,
  0xbd98b2253d4941dbU, 0xbbdf4da0bd94e048U, 0x3e002e59bd650c46U, 0x3dee10963d9a321aU,
  0xbd7c8e8dbd637b73U, 0x3de208f4bd0ab686U, 0xbe1c435bbdc11b95U, 0x3e0a18d93df30057U,
  0x3d01db043d95b59aU, 0x3d23d9403d075a38U, 0x3dbe81923df3dfeeU, 0xbb2c8beebe017250U,
  0x3c2be24abd8685efU, 0xbcf7ef08bc7ab1b0U, 0x3e0f10ff3cd6c578U, 0x3e0488f3bde12fe7U,
  0xbe264d533d2f62acU, 0x3cd34fc03d817501U, 0xbd97a28fbca9b13eU, 0xbd9f33d6bd443ff4U,
  0x3d06ee5cbe054781U, 0xbd3d5515bda1cec9U, 0xbe2722cfbd4fefeeU, 0x3dc719bebd1fd017U,
  0xbd1fcc213d4b9537U, 0x3d985e03bcba1c5fU, 0xbdeb630c3c5b4060U, 0x3e1bf65b3e002a74U,
  0xbe07cf8f3e0daa7bU, 0xbe0b1bd43da5ed5eU, 0xbd1063f43d8c978aU, 0x3cf6781b3cfdc638U,
  0x3c6cc360be1ccfa8U, 0x3cf2edf0bd115740U, 0xbdbf0388be138da6U, 0xbd9c7a2c3d2eebeaU,
  0xbdbfdd22bdbb35aaU, 0xbd9a585fbde64562U, 0xbd59de32bc3cc48bU, 0xbdabd6d6bdc1a811U,
  0xbdbc049cbd816820U, 0x3ce064983dfcd66aU, 0x3e1a6a393dd2db1eU, 0xbe04da493e01c7dbU,
  0x3be50ba03db6e252U, 0xbe0e1bcb3def8542U, 0xbd968f51bdaf5be5U, 0x3dc9146a3cbed550U,
  0x3d0f26d03e0940f7U, 0x3dbe67163cc7d4c0U, 0x3d88bfdcbc77b640U, 0x3e01b24bbdda7b58U,
  0x3db7eb8ebc814500U, 0x3d2c64c43ceab538U, 0x3df0f67ebc128b50U, 0xbdcdebe43c2f0900U,
  0xbd9739a23dad33dcU, 0x3d8128babde78b6aU, 0xbd190d943ded53c6U, 0xbdd356263b4a3280U,
  0xbd59fffebe09c6e2U, 0x3dea4b4e3d329404U, 0x3e1c5e813c1b8cc0U, 0xbe086865bc782ae0U,
  0xbdb2fed1bd86214bU, 0xbe0274ba3ddf371eU, 0x3cb34308be0ffe25U, 0x3cf7edd03aa7d400U,
  0x3dd89f26bdb967ceU, 0x3c5adac03df7c266U, 0xbd7fcb04bd708732U, 0x3e06ffd7bdadb2d0U,
  0x3d28bd90be09faefU, 0x3db51f803de8658aU, 0xbd629bb03e02bf73U, 0xbe150510be018eefU,
  0xbda035aa3c221d90U, 0x3d604534bd393c18U, 0xbb2d50c03dd11b12U, 0xbe0494b4bc147b30U,
  0x3db16a0ebdd5b0c3U, 0x3dc3cc50bc24d4e0U, 0x3cb32f603c98ad80U, 0xbdf58888be11cc8dU,
  0x39469800bde51f6dU, 0xbd84083e3e0bd499U, 0x3e00f6cd3dcad8eaU, 0x3d811c8e3b8be9a0U,
  0x3df49f8e3e0d5da5U, 0x3d98e1c63cdbfd38U, 0xbdfe090ebbd7b4a0U, 0xbdd006fe3db0dae6U,
  0xbd8de74b3dcf43f6U, 0xbd9119bbbdd716fbU, 0xbdcf686c3e0cdb87U, 0xbd8e7ccfbda9b400U,
  0xbe0d4f2f3dfd221eU, 0xbd6823e0bd108648U, 0x3d2844ecbcb827a8U, 0xbe17fc233d770100U,
  0xbcc151e03bd05200U, 0x3c3bfd703de814a6U, 0xbc9223c0bc9241c0U, 0xbe19fd703e15a4d1U,
  0x3e206c813d39ecd8U, 0xbc18493d3dd0ffdaU, 0x3e060587bd0cc9bfU, 0x3d85ac72be0cc131U,
  0x3d32a0b83d66c5b7U, 0xbd6091de3df51270U, 0x3dc3f42f3e03b409U, 0x3ed34b73bdeeca33U,
  0x3d9dc3043ded8cf2U, 0xbde20b18bd9e5066U, 0xbe121d36bdb9059eU, 0x3d4ae5bc3e17e044U,
  0xbde15f0ebcd46ea8U, 0x3ba7860abd5b2bc0U, 0xbda16a21bcfb7ba4U, 0x3e2594c73e13ece3U,
  0xbdee05e63d0bb738U, 0x3cccb7483dea6718U, 0x3df9930a3d098d81U, 0xbcac3f583d5718e5U,
  0xbde1a6393dd50560U, 0x3d84589e3e13fc57U, 0x3e16c9b1bd5ca13eU, 0x3d96caec3da18c36U,
  0x3c85e080be103118U, 0xbd0513a8be0315bcU, 0xbdccccc9bd8aac75U, 0xbcf762e03cecbda8U,
  0x3de785673dd38447U, 0xbe0e935abc1c2c70U, 0x3d96c642bdb966cfU, 0x3d9a834e3d8babe5U,
  0xbe1a04f83dcf13e8U, 0x3d8ee3523e0b10afU, 0x3e12a4f23e16da16U, 0x3da1a5fb3e1b4a6dU,
  0x3d1d1a7d3db37d98U, 0x3c9821483ccf5140U, 0xbdf55c623d7fe74cU, 0xbd18e4483dbf57bbU,
  0x3e1ac8bebd944786U, 0xbdd89ebfbc9261fdU, 0x3e1470353da20ad1U, 0xbc3c8050bd613358U,
  0x3d7334f03d95bba2U, 0x3dd447bfbce239f8U, 0x3ca1f6733dcbc4deU, 0xbd47ac903e1e66e7U,
  0x3dbc85333d6a7305U, 0x3dbb39a93d704557U, 0xbde377babd2a56ccU, 0x3e1802d13c3071c9U,
  0x3de596223d874dd0U, 0xbe05d574be072200U, 0x3e1c76cdbd6c9484U, 0xbde89c95bde96ce4U,
  0xbd5ea7d2bc3c204bU, 0xbe074f6abe14374eU, 0xbcbc31583db398e0U, 0x3c9842f83de424beU,
  0xbdf0cce8bb85b212U, 0x3dce511abdbe33e0U, 0x3df26c87bd64a196U, 0x3d846d5fbad6e180U,
  0x3ca17016bdcb0940U, 0x3de0fe1bbb3437acU, 0x3c0cfb10bbc65615U, 0x3e16831d3db70b42U,
  0x3d06ccc0bdb8ecf2U, 0xbe06b9863df03b76U, 0x3da778ffbd669fc0U, 0x3edc7b93bc52058cU,
  0x3c128d333d88a7ecU, 0x3e1becbf3dc9c75aU, 0x3de1a4dabe0a619cU, 0xbd36585a3da5e46dU,
  0x3cc88fb0bda3a4a1U, 0xbd4460853dd9dcbeU, 0x3dbe74bd3e00dcd7U, 0x3ddef7923e029301U,
  0xbd3a37a53d5178c4U, 0xbddbafe83e039f6dU, 0x3e43d5703d15ccbdU, 0xbc3d06c0bde43e94U,
  0x3d5908e43dbcd9d3U, 0x3dbe21ac3e01ddc0U, 0xbda71f983d8b25cdU, 0xbcabfa72be0271a8U,
  0x3d857c643b5df326U, 0x3d8be440bdfb1ceeU, 0xbd442be6bc8b8988U, 0x3c31b7e0be1c84a1U,
  0xbc945861be18e9a7U, 0x3d1d8d5f3d2b585cU, 0x3de7315abda0e82aU, 0xbe04cb4a3dc0a441U,
  0xbd1e8ac8bdd6e31eU, 0xbc4e9f60bd8ecfa1U, 0xbdf1093b3e0bb87bU, 0xbd932a613e07eb18U,
  0xbdf2ad30b7cc4000U, 0xbdc31f0cbe0ce73cU, 0x3dcf9dc1be061601U, 0x3deb76ea3d9dc4adU,
  0x3cba9f43be05ea72U, 0x3ca91040bcc1ff58U, 0x3ce7e880bc218b36U, 0xbe0bec2c3d23b3b4U,
  0xbdd518303d2e150bU, 0xbd53899d3e1bc859U, 0x3d6738d1bd60f6eaU, 0x3d1e64203dcc6195U,
  0x3d916a69bdb337f2U, 0x3c5d909f3dd3327bU, 0xbe25630ebe0feff0U, 0xbe184bc43ce70893U,
  0xbd8d94143cb156d8U, 0xbe04102a3d07f538U, 0x3e117d6f3da21b9eU, 0xbe15761e3ddb4f22U,
  0xbc0703403d70ac0bU, 0xbd7d28fcbcaa1560U, 0x3db50ae4bc8fe544U, 0x3d501290bd8b50e4U,
  0x3bda16f63cc7a05aU, 0x3d07541dbdc54786U, 0x3dd0a8dd3dd67ce0U, 0xbe34f4f93cdd5398U,
  0xbd9859953d8ec214U, 0x3e0803ab3d8c9ea1U, 0xbe185db73dc31c64U, 0xbd4f350a3df9fd8aU,
  0xbc8788683d9a8c61U, 0x3c1b8e40bd262f10U, 0xbdae1f283c0b8310U, 0xbd907b31bde676cbU,
  0xbd50efcabd8bb85aU, 0xbd7bc4ee3e059e6bU, 0x3dd803be3e0ed1bfU, 0xbdb39df5be06a6c7U,
  0xbbe1dc803e13b8f3U, 0xbd22850f3dfe5d82U, 0x3d0680b5be02bcf8U, 0x3e00c164bde1ab5fU,
  0x3e011a523d3a4b4cU, 0xbe13a1493da16abeU, 0xbe20b0073d85d815U, 0xbdc4c2783e0f1ce1U,
  0x3dae69663ded7e12U, 0x3b32b9c63dbe6b73U, 0xbbe896c0bd8b0121U, 0x3ceb6c5e3de3d2f6U,
  0xbdbd6300be1627e6U, 0x3d3c1ed03d0a7c14U, 0x3dc0f9463d1b93c0U, 0x3dc5feeabdb6b995U,
  0xbd8ae0fd3ccb5f24U, 0x3ca550cb3e09fb73U, 0xbc980d00bd0ca57fU, 0xbe0bc00dbe112a40U,
  0x3e12b5b9bd001f02U, 0x3e0f69673bb15b20U, 0x3be600c93c9c9211U, 0xbd321408bc47c299U,
  0xbb81f603bd9dea75U, 0xbde94804be0a5705U, 0xbd8c09ad3dc9bb4eU, 0x3dae0a94bd4742daU,
  0xbdc2d5263c0472f2U, 0xbc59cc60bd6cd0b3U, 0x3e1af625bbd7d0afU, 0xbd90b0d2bd3b3922U,
  0xbe03a30c3ce5e86eU, 0x3c00fc60bb5c5280U, 0xbe00811fbdd678ccU, 0x3e06a6733c9679f2U,
  0x3dff5e10bc65136fU, 0xbdb697ab3d5b708aU, 0x3d5cdb27bde3b414U, 0x3e16402fbd4db364U,
  0x3afa5aebbdd320b4U, 0xbc1c9c1c3cb312f8U, 0xbe0ed0ac3d1dd9d0U, 0x3d2d2e2abc704350U,
  0xbe073a203d895a87U, 0xbda1e7653debaebeU, 0x3e0d72bdbd75f5d5U, 0x3e09c8bbbde8f4fbU,
  0xbd0f6d933d3af509U, 0xbd47995dbde80d33U, 0x3e00ebaf3d87e11aU, 0xbe005cb53de40db6U,
  0x3c1dbbb03ddb4cc2U, 0xbb51dd40be07c33dU, 0xbc21dd903d48bdc4U, 0x3e1409233d695ad0U,
  0x3e15c8ad3e075fe1U, 0x3d904d5ebbd12de0U, 0x3d8e4038bdf7286eU, 0x3cc71610be0a324fU,
  0x3db49cc8bd5eea88U, 0x3d51128c3deaf1e6U, 0xbd33ace83cecd080U, 0x3c4911c03dae2024U,
  0xbdf791563c068650U, 0xbd15d2c43cab7318U, 0x3db69d423c09e570U, 0x3d95fc18bddd6ff8U,
  0xbda7a9af3ceffc80U, 0x3d9fcd0c3d8a76d6U, 0x3e025dc3bdc84986U, 0xbca3e3c8be0b4d37U,
  0xbdb0a57cbc471de0U, 0x3cc166a03dfba7b2U, 0x3dc8b802be0c2a85U, 0xbde233823e02b267U,
  0xbd3b35cc3d9cb53aU, 0xbcdfe140bd5ada92U, 0x3c6828703e109e13U, 0xbdb899523d7734e8U,
  0x3d6467f8be07ddb9U, 0x3df3fcd23bd6c320U, 0xbe0c7311be06efdbU, 0xbd6d6af6bdfee754U,
  0x3e11d643bcede2b0U, 0xbba43940bdde6714U, 0xbe174652bddbf30eU, 0x3e0694a13d91cd00U,
  0x3d8dbe48bdb67f94U, 0x3dc66284bd4ed174U, 0xbde756a33da8fb4aU, 0x3cad9098be0e7e8aU,
  0x3dcc3096bcb189c0U, 0xbe0834823e062b2fU, 0x3db49fcebd8881f4U, 0xbde9fcc8bddec739U,
  0x3d74f2a43d3005d0U, 0xbded21753d4c2de4U, 0xbded6215bdf13296U, 0x3d447cd8bd807e78U,
  0xbe12a36b3d9a1648U, 0x3e0afec3bdfe5bc4U, 0x3dc31258bd84ec7cU, 0xbe0cb02ebd669a02U,
  0x3c55a2d0bdea9f68U, 0xbb6bd9803e0b7e31U, 0xbd94b42cbd85e0abU, 0x3d636d783d8b7f66U,
  0xbbf685003e1640fbU, 0x3c9728d0bc76bfc0U, 0xbc17a780bd8e6015U, 0x3e05d1073ddb930aU,
  0x3c1ecbc03db69582U, 0x3dfcbeba3acc0680U, 0xbd0eba8a3d7fff24U, 0x3dd4e97e3db0c75cU,
  0xbd0aa1c53a24d675U, 0x3dfcdce5bd8a5434U, 0x3d62b4383dabfb0eU, 0x3cf52ae83cab1d10U,
  0xbc9b1d603d417a14U, 0x3d91460cbe0c951cU, 0xbd9a2a593e1aea95U, 0x3e9899653d588417U,
  0x3df1abb23df447baU, 0xbdcac07a3d6a8348U, 0x3e05986d3d3ba284U, 0x3df23f7a3da29653U,
  0x3ded5806bd806f28U, 0x3d3580fc3dad0f72U, 0xbd5a4f903dc0bc52U, 0x3e3603c53ca3b080U,
  0x3e1aa5df3df2a7baU, 0x3bf509e03d32c8f2U, 0x3c58d0193c1b5f96U, 0x3d722124be05ce22U,
  0xbe0bc353be11d93bU, 0x3e0cd18ebc21ff5cU, 0xbe0a2c47bd0c31f9U, 0x3e12a44dbabc5b80U,
  0xbe1b32e63d887a05U, 0x3e0f46d1be185dfeU, 0xbdc733423e037de9U, 0xbaa5b680bdb000eeU,
  0xbdd78a733ceb468dU, 0xbdc34e723c24b7d0U, 0xbd39f3803d600552U, 0xbd1ad3743e191d51U,
  0xbd8e36403c98b8daU, 0x3cdcb090be0e06edU, 0x3d00dbf93d31f93aU, 0xbe0e47903bdeed20U,
  0x3c631a42be001e0aU, 0x3e0227f3bdc13dbeU, 0xbd807f88bad1af80U, 0xbd726e263df9b6f2U,
  0xbd0b43023d0d6e6aU, 0xbd7fdbe4bd8d49b7U, 0x3df5691a3d5c422bU, 0x3d79a3ec3e101c15U,
  0x3d0e56583de65c14U, 0xbd75aeba3d3831ccU, 0xbe1237c33d8bfce6U, 0xbdb08681bd6baf2fU,
  0xbc35a38cbdcae002U, 0x3d2723f33ca9c898U, 0xbd91fc98bd01f21dU, 0xbce126403e2723efU,
  0x3de9494cbde2e2efU, 0xbd83281a3d876c82U, 0x3e0e26913d37b510U, 0xbd9ea9633c977968U,
  0xbcad2f60bdeed61eU, 0x3ba1c3603c15c590U, 0xbda26bab3de1cb2cU, 0xbdab29bdbc8ec970U,
  0x3bf734ea3df03edeU, 0xbd19ec883dfd35aeU, 0x3d9344b63e0eba34U, 0xbe1d0acd3e1a1c5fU,
  0x3da0720dbc23f37dU, 0xbda58c0a3d429253U, 0xbc8e6948be0ad38cU, 0xbe09bec8bc6af220U,
